<unk>	0
<s>	0
</s>	0
▁क	-0
▁स	-1
▁ह	-2
▁म	-3
▁प	-4
्र	-5
▁के	-6
▁है	-7
ें	-8
ार	-9
▁ज	-10
या	-11
▁व	-12
▁अ	-13
▁में	-14
▁ब	-15
र्	-16
▁न	-17
ों	-18
▁द	-19
ान	-20
▁र	-21
ता	-22
्य	-23
िक	-24
▁ल	-25
▁की	-26
▁प्र	-27
▁उ	-28
▁का	-29
▁ग	-30
▁इ	-31
▁भ	-32
▁औ	-33
▁से	-34
्त	-35
▁और	-36
▁ए	-37
▁त	-38
ने	-39
ित	-40
▁को	-41
▁आ	-42
िया	-43
्व	-44
▁श	-45
ना	-46
▁य	-47
▁पर	-48
न्	-49
ला	-50
▁कर	-51
▁इस	-52
▁वि	-53
▁एक	-54
▁हैं	-55
था	-56
▁हो	-57
िय	-58
्ट	-59
▁च	-60
ाल	-61
▁सं	-62
्ष	-63
▁जा	-64
ती	-65
िस	-66
ाम	-67
िल	-68
ते	-69
▁1	-70
हा	-71
ड़	-72
▁सम	-73
ाज	-74
त्र	-75
ति	-76
ुर	-77
▁ने	-78
िए	-79
वा	-80
के	-81
ंग	-82
स्	-83
▁फ	-84
▁भी	-85
▁स्	-86
▁किया	-87
्या	-88
का	-89
ेश	-90
▁सा	-91
▁यह	-92
ोग	-93
▁थ	-94
से	-95
क्ष	-96
▁कि	-97
री	-98
ाद	-99
▁अन	-100
ास	-101
▁·	-102
्म	-103
रा	-104
नी	-105
▁था	-106
▁लिए	-107
▁ख	-108
▁नि	-109
ही	-110
कार	-111
▁2	-112
▁अप	-113
▁हु	-114
ले	-115
िन	-116
द्	-117
्स	-118
ूप	-119
▁गया	-120
कर	-121
ली	-122
ां	-123
▁जो	-124
▁राज	-125
ारा	-126
▁भार	-127
ाय	-128
की	-129
▁अध	-130
ंद	-131
▁कार	-132
▁ड	-133
ियों	-134
ूर्	-135
▁रूप	-136
▁जाता	-137
▁ट	-138
▁या	-139
▁द्व	-140
द्ध	-141
▁ही	-142
्री	-143
क्त	-144
मा	-145
▁दे	-146
▁उप	-147
ष्ट	-148
00	-149
ीन	-150
िला	-151
ंड	-152
▁मु	-153
▁उस	-154
▁उन	-155
▁वर्	-156
▁कु	-157
हीं	-158
्प	-159
ओं	-160
▁जिस	-161
न्ह	-162
▁ध	-163
▁19	-164
वि	-165
▁स्थ	-166
▁ले	-167
भा	-168
▁उत	-169
▁भा	-170
▁तथा	-171
▁करने	-172
ाह	-173
ाने	-174
स्त	-175
▁विश	-176
ेल	-177
▁नहीं	-178
सी	-179
िर	-180
▁द्वारा	-181
ंत	-182
▁थे	-183
▁पह	-184
▁•	-185
▁साथ	-186
ार्	-187
न्द	-188
ाइ	-189
ात	-190
▁सक	-191
▁अनु	-192
▁घ	-193
में	-194
▁भारत	-195
ृत	-196
्रे	-197
पुर	-198
▁अधिक	-199
▁तक	-200
्च	-201
ज़	-202
▁क्ष	-203
▁रह	-204
देश	-205
▁निर्	-206
▁स्व	-207
▁होता	-208
िव	-209
सा	-210
▁बाद	-211
▁छ	-212
म्	-213
ल्	-214
▁लग	-215
कि	-216
▁उन्ह	-217
रे	-218
▁थी	-219
▁प्रा	-220
ानी	-221
ब्	-222
▁मह	-223
▁नाम	-224
दी	-225
योग	-226
▁इन	-227
मी	-228
▁दो	-229
ेत्र	-230
▁वे	-231
्ञ	-232
▁मान	-233
▁"	-234
▁अपने	-235
▁दिया	-236
▁जी	-237
▁सि	-238
▁सु	-239
वी	-240
ुत	-241
वं	-242
ढ़	-243
▁वाल	-244
गर	-245
ंध	-246
प्त	-247
▁पा	-248
्ड	-249
भी	-250
िश	-251
खा	-252
मान	-253
ूर	-254
▁हुआ	-255
▁क्षेत्र	-256
िका	-257
न्न	-258
ोज	-259
ारी	-260
ंत्र	-261
र्म	-262
▁पूर्	-263
्तर	-264
▁बह	-265
ेर	-266
क्र	-267
▁कुछ	-268
ोल	-269
▁मा	-270
ोट	-271
▁जिला	-272
▁जै	-273
▁साम	-274
ष्	-275
▁ई	-276
▁राज्य	-277
▁व्य	-278
▁वर्ष	-279
▁पु	-280
▁रा	-281
जी	-282
▁सब	-283
धार	-284
▁एवं	-285
ज्ञ	-286
ौर	-287
▁इसके	-288
▁प्रति	-289
्ल	-290
दि	-291
स्ट	-292
नों	-293
▁स्थित	-294
ूल	-295
▁हि	-296
▁बी	-297
▁ऐ	-298
षा	-299
▁वह	-300
▁विक	-301
▁बना	-302
▁सी	-303
ोंने	-304
▁तो	-305
िट	-306
रण	-307
िये	-308
जा	-309
▁|	-310
ड़ा	-311
ोक	-312
▁मिल	-313
▁करते	-314
प्र	-315
▁हुए	-316
▁होती	-317
चार	-318
▁जब	-319
कों	-320
▁समय	-321
दा	-322
ीय	-323
▁'	-324
▁कम	-325
टर	-326
तीय	-327
ण्ड	-328
▁अन्य	-329
फ़	-330
निक	-331
▁किस	-332
ड़ी	-333
▁क्र	-334
▁कई	-335
र्थ	-336
▁200	-337
▁ओ	-338
ेट	-339
▁कार्य	-340
िंग	-341
िम	-342
▁अव	-343
▁कारण	-344
ोर	-345
सार	-346
र्श	-347
वे	-348
▁कह	-349
▁लोग	-350
हाँ	-351
▁विश्व	-352
▁ब्र	-353
ाला	-354
स्थ	-355
▁प्रकार	-356
▁अंत	-357
ंच	-358
हर	-359
्यू	-360
ाना	-361
▁सबसे	-362
बर	-363
▁गु	-364
त्	-365
▁बन	-366
▁जन	-367
▁होने	-368
▁सर	-369
बंध	-370
▁ऑ	-371
्रीय	-372
ाँ	-373
▁सकता	-374
मु	-375
ूस	-376
क्ति	-377
यु	-378
िण	-379
▁उनके	-380
▁मै	-381
र्ग	-382
▁भाषा	-383
▁यु	-384
द्य	-385
▁पुर	-386
▁भारतीय	-387
▁उन्होंने	-388
भाव	-389
▁मे	-390
▁ग्र	-391
▁देश	-392
ुल	-393
▁किसी	-394
क्स	-395
▁मुख	-396
▁पूर्व	-397
ोप	-398
िप	-399
▁तर	-400
ध्य	-401
▁फ़	-402
ंप	-403
▁3	-404
▁वाले	-405
▁जाती	-406
ेष	-407
▁अम	-408
▁करता	-409
श्च	-410
▁होते	-411
▁बहुत	-412
▁20	-413
▁-	-414
ंक	-415
गी	-416
पूर्	-417
माण	-418
िल्म	-419
▁स्ट	-420
च्च	-421
लय	-422
वन	-423
▁हुई	-424
▁अपनी	-425
▁राष्ट	-426
▁चु	-427
गा	-428
▁कै	-429
▁ऊ	-430
▁बार	-431
करण	-432
टी	-433
▁बा	-434
ज्ञान	-435
▁भू	-436
▁पहले	-437
▁कहा	-438
र्व	-439
ग्र	-440
त्य	-441
ड़े	-442
▁गए	-443
▁अल	-444
नि	-445
▁गई	-446
▁पू	-447
कृत	-448
बी	-449
ख्या	-450
त्व	-451
्यों	-452
सि	-453
▁दी	-454
▁ना	-455
▁अभ	-456
▁ला	-457
ेन	-458
स्था	-459
▁भाग	-460
▁जैसे	-461
को	-462
िले	-463
ंज	-464
▁बि	-465
किन	-466
ाली	-467
हां	-468
ये	-469
धान	-470
दान	-471
ास्त	-472
्रा	-473
▁ये	-474
▁दु	-475
▁व्या	-476
ियम	-477
हित	-478
▁लेकिन	-479
ोध	-480
▁प्राप्त	-481
▁आदि	-482
▁/	-483
त्त	-484
▁उत्तर	-485
तिक	-486
▁सू	-487
चना	-488
ाई	-489
▁उत्प	-490
मुख	-491
यी	-492
▁शुर	-493
an	-494
▁उन्हें	-495
▁शाम	-496
▁रहे	-497
▁वै	-498
▁स्था	-499
▁मुख्य	-500
र्ष	-501
िख	-502
▁ता	-503
हार	-504
▁अनुसार	-505
िक्ष	-506
▁5	-507
धि	-508
िन्न	-509
न्त	-510
काश	-511
▁इसका	-512
▁स्थान	-513
पर	-514
▁7	-515
ून	-516
▁रहा	-517
▁दूस	-518
▁प्रयोग	-519
बाद	-520
▁विभ	-521
▁निक	-522
ेम	-523
ित्र	-524
▁शामिल	-525
ेड	-526
▁बै	-527
▁जाने	-528
in	-529
▁उसके	-530
▁विशेष	-531
ुद	-532
▁सभी	-533
▁पी	-534
▁गाँ	-535
▁उपयोग	-536
▁लिये	-537
▁आधार	-538
क्षा	-539
▁दक्ष	-540
▁तरह	-541
न्म	-542
▁इसे	-543
▁t	-544
ब्द	-545
▁बीच	-546
क्	-547
ांत	-548
▁201	-549
▁18	-550
ंब	-551
ील	-552
ँच	-553
्यालय	-554
वल	-555
▁स्थाप	-556
▁रख	-557
▁8	-558
▁दक्षिण	-559
र्त	-560
ंट	-561
▁सरकार	-562
क्ट	-563
▁उनकी	-564
▁लिया	-565
िता	-566
त्म	-567
▁जाते	-568
▁अंग	-569
▁जिन	-570
ोन	-571
▁कोई	-572
▁4	-573
▁महा	-574
▁पद	-575
▁काम	-576
वत	-577
▁पार	-578
ियन	-579
▁परिव	-580
▁प्रमुख	-581
▁पै	-582
श्य	-583
▁जन्म	-584
क्रम	-585
च्	-586
्ला	-587
काल	-588
▁करना	-589
वाद	-590
यन	-591
पूर्ण	-592
he	-593
▁प्रदेश	-594
▁पश्च	-595
▁जिसमें	-596
युक्त	-597
▁गाँव	-598
▁शहर	-599
▁संस्	-600
भग	-601
▁हिन्द	-602
म्ब	-603
ैंड	-604
▁आव	-605
ंस	-606
जन	-607
ोर्	-608
यर	-609
च्छ	-610
हास	-611
▁बढ़	-612
▁मन	-613
धिक	-614
▁यहाँ	-615
▁उत्त	-616
▁लोगों	-617
▁बे	-618
्वी	-619
वर	-620
▁जिले	-621
▁लगभग	-622
▁चाह	-623
▁धर्म	-624
▁नी	-625
▁ओर	-626
▁वा	-627
णा	-628
ोम	-629
▁निर्माण	-630
▁शब्द	-631
▁आर	-632
दर्श	-633
▁प्रभाव	-634
▁फिल्म	-635
▁अमेर	-636
▁प्रकाश	-637
▁झ	-638
र्क	-639
ार्थ	-640
▁हम	-641
▁नगर	-642
रिक	-643
ष्ठ	-644
लों	-645
क्षण	-646
▁दोनों	-647
तिहास	-648
▁तीन	-649
▁मूल	-650
on	-651
िस्त	-652
▁उसे	-653
▁दिन	-654
▁स्प	-655
▁सद	-656
ियाँ	-657
▁सकते	-658
▁मौ	-659
▁देख	-660
▁विकास	-661
er	-662
▁जु	-663
चीन	-664
एँ	-665
▁संबंध	-666
सं	-667
▁उद	-668
▁आप	-669
▁अंतर	-670
थम	-671
कृ	-672
▁चल	-673
▁मंद	-674
्वर	-675
िकी	-676
▁अध्य	-677
▁प्रश	-678
गे	-679
▁टी	-680
ॉल	-681
त्रा	-682
▁इसी	-683
शन	-684
▁मार्	-685
▁बु	-686
▁इसकी	-687
▁दौर	-688
▁ज़	-689
ोह	-690
▁पहु	-691
ारों	-692
व्य	-693
ैन	-694
ूह	-695
▁हर	-696
ेद	-697
टा	-698
▁वाली	-699
▁महत्व	-700
फल	-701
ंह	-702
सिद्ध	-703
▁लोक	-704
▁मध्य	-705
तर	-706
▁प्राचीन	-707
▁भूम	-708
ंकि	-709
धी	-710
▁व्यव	-711
ोष	-712
डी	-713
गत	-714
▁6	-715
ंभ	-716
▁फिर	-717
▁केवल	-718
▁आम	-719
▁ईसा	-720
र्गत	-721
▁जल	-722
▁मंदिर	-723
ar	-724
▁सह	-725
▁जीवन	-726
▁कहते	-727
▁छोट	-728
एं	-729
ेशन	-730
▁काल	-731
▁अस	-732
ताओं	-733
▁शास	-734
बा	-735
▁माना	-736
विद	-737
िज	-738
▁करती	-739
▁अर्थ	-740
िखा	-741
▁अन्त	-742
ारे	-743
▁दृ	-744
▁श्री	-745
्टी	-746
ेक	-747
▁परि	-748
न्द्र	-749
ंद्र	-750
धा	-751
णी	-752
द्र	-753
▁शुरू	-754
▁सम्म	-755
र्य	-756
▁कृ	-757
▁सिद्ध	-758
▁निय	-759
▁राष्ट्र	-760
at	-761
▁अब	-762
तः	-763
स्प	-764
निया	-765
ोस	-766
▁दौरान	-767
▁लगा	-768
▁शिक्ष	-769
▁इसमें	-770
▁199	-771
▁साहित	-772
फी	-773
▁सर्व	-774
▁क्यों	-775
▁व्यक्ति	-776
ष्ण	-777
▁हाला	-778
▁प्रसिद्ध	-779
▁जि	-780
▁अपना	-781
▁विभिन्न	-782
▁अने	-783
िल्	-784
ेत	-785
ुक	-786
▁जिसे	-787
▁साहित्य	-788
िस्तान	-789
▁युद्ध	-790
▁अलग	-791
is	-792
▁तह	-793
▁कंप	-794
▁स्क	-795
▁आज	-796
▁उच्च	-797
▁व्याप	-798
ोत	-799
▁पृ	-800
ंश	-801
्ले	-802
▁राष्ट्रीय	-803
पी	-804
▁बद	-805
दे	-806
or	-807
र्स	-808
▁अंग्रे	-809
र्ड	-810
ुम	-811
ोड	-812
▁अला	-813
▁साल	-814
सर	-815
▁कॉ	-816
▁यहां	-817
▁उनका	-818
ोड़	-819
द्योग	-820
▁संवत	-821
▁दर्श	-822
वान	-823
▁हा	-824
▁पास	-825
ैल	-826
टन	-827
▁समा	-828
▁कला	-829
ुओं	-830
श्यक	-831
al	-832
▁अनेक	-833
▁रे	-834
▁राजा	-835
▁वी	-836
▁ली	-837
▁क्योंकि	-838
en	-839
▁गण	-840
▁जान	-841
▁गो	-842
▁राम	-843
चे	-844
▁रही	-845
न्ध	-846
▁अर्	-847
▁ठ	-848
वाह	-849
जे	-850
्ब	-851
▁ब्रिट	-852
ुष	-853
▁संघ	-854
▁तब	-855
्सा	-856
▁जाना	-857
▁बात	-858
▁हिस	-859
यास	-860
▁मी	-861
▁ती	-862
▁लेख	-863
▁गयी	-864
▁आवश्यक	-865
▁संख्या	-866
▁विर	-867
चा	-868
▁प्रत्य	-869
चित	-870
ान्त	-871
▁निर्देश	-872
ष्ट्रीय	-873
▁सदस	-874
▁9	-875
ोजन	-876
▁रेल	-877
▁समुद	-878
वीं	-879
▁उत्पाद	-880
es	-881
म्म	-882
000	-883
▁लिख	-884
कल	-885
▁अलावा	-886
▁सन्	-887
▁कल	-888
ान्य	-889
विद्यालय	-890
त्या	-891
्यु	-892
▁योग	-893
तंत्र	-894
▁समझ	-895
रों	-896
ची	-897
▁ज्ञ	-898
▁सेवा	-899
▁संग	-900
▁विज्ञान	-901
▁25	-902
ाइन	-903
ियो	-904
▁हालांकि	-905
▁नदी	-906
▁जिसके	-907
स्थान	-908
▁विष	-909
िल्ली	-910
▁10	-911
▁the	-912
▁अति	-913
▁आध	-914
▁इतिहास	-915
▁श्र	-916
वाल	-917
कृति	-918
▁:	-919
▁बाह	-920
▁अग	-921
▁अर	-922
▁विचार	-923
मार	-924
▁महत्वपूर्ण	-925
ंतु	-926
ूद	-927
ेंट	-928
▁प्रदर्श	-929
▁सै	-930
▁चार	-931
ग्रह	-932
टना	-933
▁फ्र	-934
▁बड़े	-935
▁वर्ण	-936
▁कभी	-937
भाग	-938
म्प	-939
नाव	-940
▁विद	-941
▁पड़	-942
▁किए	-943
ूत	-944
ुआ	-945
मित	-946
वास	-947
▁आय	-948
▁इन्ह	-949
▁ढ	-950
▁नामक	-951
पन	-952
▁शिक्षा	-953
▁चौ	-954
▁रंग	-955
ियां	-956
▁रोग	-957
▁प्रथम	-958
ांश	-959
मे	-960
िस्ट	-961
ुट	-962
▁15	-963
्रेस	-964
▁समूह	-965
▁अध्ययन	-966
▁यूर	-967
ांस	-968
▁प्रदान	-969
एस	-970
ियर	-971
्यान	-972
▁सो	-973
▁वृ	-974
▁अन्तर्गत	-975
▁सेना	-976
▁सर्	-977
▁पृथ	-978
ंथ	-979
▁प्रण	-980
▁रचना	-981
ूट	-982
हाय	-983
स्ता	-984
▁जिसका	-985
ष्टि	-986
▁दर	-987
ोजना	-988
▁आई	-989
▁अमेरिका	-990
▁सकती	-991
▁उपल	-992
▁हिन्दी	-993
ाज्य	-994
▁o	-995
तम	-996
▁फ़िल्म	-997
▁कुल	-998
▁हिंद	-999
▁गै	-1000
▁दिल्ली	-1001
▁चाहिए	-1002
ंख	-1003
वर्	-1004
▁समान	-1005
▁दूसरे	-1006
ांक	-1007
▁दूर	-1008
▁वस्त	-1009
▁शा	-1010
▁संयुक्त	-1011
▁जीव	-1012
लेख	-1013
▁खेल	-1014
ीप	-1015
▁वाला	-1016
ेज	-1017
▁उसकी	-1018
▁अथ	-1019
ित्व	-1020
▁विश्वविद्यालय	-1021
्‍	-1022
▁उपलब्	-1023
▁न्यू	-1024
▁पुन	-1025
▁स्थापित	-1026
▁प्रार	-1027
ुप	-1028
डा	-1029
▁सामान्य	-1030
▁गये	-1031
कारी	-1032
▁जबकि	-1033
▁सिंह	-1034
▁गति	-1035
▁सहाय	-1036
▁खिला	-1037
▁पाक	-1038
चाल	-1039
भव	-1040
शी	-1041
▁धार	-1042
टक	-1043
▁।	-1044
▁तौर	-1045
ोब	-1046
▁वर्त	-1047
▁दश	-1048
it	-1049
▁बड़ा	-1050
▁आस	-1051
▁जग	-1052
▁ऐसे	-1053
ूम	-1054
ास्त्र	-1055
▁स्थापना	-1056
▁198	-1057
▁प्रव	-1058
▁बड़ी	-1059
ॉन	-1060
गढ़	-1061
▁ऐसा	-1062
▁वर्ग	-1063
▁यूरोप	-1064
यों	-1065
▁अधिकार	-1066
▁यू	-1067
▁भर	-1068
▁समाज	-1069
▁देने	-1070
▁कोश	-1071
▁जाए	-1072
्न	-1073
▁सुर	-1074
▁17	-1075
ाया	-1076
मन	-1077
▁देशों	-1078
▁पत्र	-1079
वरी	-1080
ed	-1081
ण्डल	-1082
ठन	-1083
▁पहली	-1084
▁गुर	-1085
▁देव	-1086
▁घर	-1087
गीत	-1088
▁s	-1089
साय	-1090
▁स्तर	-1091
▁12	-1092
▁197	-1093
र्ट	-1094
▁बनाया	-1095
▁वर्तमान	-1096
▁उल्	-1097
शिया	-1098
▁माध्य	-1099
चल	-1100
▁उपलब्ध	-1101
पाल	-1102
▁राजनी	-1103
▁तै	-1104
▁अथवा	-1105
▁टे	-1106
▁शी	-1107
▁वास्त	-1108
▁S	-1109
▁भग	-1110
▁यदि	-1111
▁गां	-1112
▁कान	-1113
र्द	-1114
क्रिया	-1115
िग	-1116
▁फै	-1117
▁A	-1118
▁विस्त	-1119
▁मत	-1120
▁किये	-1121
▁इसल	-1122
▁चित्र	-1123
▁माध्यम	-1124
▁C	-1125
▁c	-1126
लैंड	-1127
▁रखा	-1128
ंगा	-1129
दार	-1130
▁काफी	-1131
▁शरी	-1132
▁श्रे	-1133
▁इस्त	-1134
वार	-1135
▁जिन्ह	-1136
▁.	-1137
म्भ	-1138
▁करके	-1139
▁उद्	-1140
▁शु	-1141
ंदर	-1142
▁196	-1143
ल्ड	-1144
ानों	-1145
▁इं	-1146
▁पि	-1147
▁उसने	-1148
▁वर्षों	-1149
यं	-1150
गल	-1151
पा	-1152
▁न्या	-1153
न्तु	-1154
▁ज्या	-1155
▁अधिकांश	-1156
विक	-1157
ट्ट	-1158
▁बल	-1159
ामी	-1160
स्कार	-1161
▁प्रत्येक	-1162
▁शै	-1163
▁पूर्ण	-1164
्यता	-1165
ुनिक	-1166
▁बनाने	-1167
वादी	-1168
म्बर	-1169
▁मानव	-1170
ाइड	-1171
▁ट्र	-1172
ic	-1173
न्स	-1174
▁वाय	-1175
▁उत्तरा	-1176
▁जिससे	-1177
▁स्वतंत्र	-1178
सील	-1179
ाहरण	-1180
▁संप	-1181
कृतिक	-1182
▁मृत	-1183
▁बता	-1184
र्या	-1185
रो	-1186
▁निम्	-1187
षण	-1188
▁लेकर	-1189
▁इनके	-1190
▁नव	-1191
ज्ञानिक	-1192
▁क्षेत्रों	-1193
▁शिव	-1194
▁स्त	-1195
▁पुस्त	-1196
िकित	-1197
▁कवि	-1198
्रम	-1199
▁16	-1200
र्तन	-1201
▁स्थिति	-1202
त्मक	-1203
▁a	-1204
▁तहसील	-1205
ूरी	-1206
▁संगीत	-1207
▁बारे	-1208
सित	-1209
▁दिखा	-1210
▁उसका	-1211
▁of	-1212
le	-1213
▁I	-1214
▁उदाहरण	-1215
कट	-1216
▁डी	-1217
त्ता	-1218
▁इला	-1219
▁चि	-1220
र्जा	-1221
वरण	-1222
द्धि	-1223
ंत्री	-1224
▁पं	-1225
▁पहुंच	-1226
▁परिण	-1227
▁त्र	-1228
▁पौ	-1229
▁ख़	-1230
▁संर	-1231
▁पानी	-1232
▁आधुनिक	-1233
▁निम्न	-1234
▁सफल	-1235
▁ब्रिटिश	-1236
▁195	-1237
जर	-1238
▁पृथ्वी	-1239
▁दुनिया	-1240
▁शरीर	-1241
▁‘	-1242
र्भ	-1243
▁मिला	-1244
▁शासन	-1245
▁सभा	-1246
▁विद्य	-1247
िष्ट	-1248
▁मण्डल	-1249
्ता	-1250
▁रहता	-1251
▁किल	-1252
▁ची	-1253
▁जहाँ	-1254
▁तुल	-1255
▁माम	-1256
▁देता	-1257
▁अच्छ	-1258
ेमाल	-1259
पति	-1260
▁शता	-1261
▁इस्तेमाल	-1262
▁पुरस्कार	-1263
इट	-1264
▁घोष	-1265
▁बच्च	-1266
बल	-1267
श्व	-1268
सल	-1269
चन	-1270
▁27	-1271
▁इससे	-1272
▁पर्व	-1273
▁जहां	-1274
▁डे	-1275
▁सीमा	-1276
स्थित	-1277
▁महिला	-1278
▁पाकिस्तान	-1279
धानी	-1280
िमी	-1281
▁उत्पन्न	-1282
▁परिवार	-1283
▁गुण	-1284
▁भूमिका	-1285
▁अफ	-1286
▁सदस्य	-1287
खण्ड	-1288
वाई	-1289
सम	-1290
ब्दी	-1291
िस्	-1292
▁प्रणाली	-1293
▁बो	-1294
▁क्ल	-1295
लो	-1296
▁हाथ	-1297
ार्ड	-1298
▁सम्मान	-1299
▁सार	-1300
▁194	-1301
▁इसलिए	-1302
▁बने	-1303
ाजिक	-1304
▁M	-1305
▁केंद्र	-1306
नीय	-1307
▁पुत्र	-1308
▁संत	-1309
▁मार्ग	-1310
▁ऑफ	-1311
रिक्त	-1312
▁होकर	-1313
▁प्राय	-1314
▁प्रक्रिया	-1315
▁प्रधान	-1316
▁द्वीप	-1317
स्ट्र	-1318
▁चुनाव	-1319
▁परिणाम	-1320
,000	-1321
यार	-1322
सन	-1323
जूद	-1324
▁आगे	-1325
ंगल	-1326
▁पिता	-1327
िने	-1328
▁विमान	-1329
▁डॉ	-1330
▁सौ	-1331
▁बाल	-1332
re	-1333
▁अतिरिक्त	-1334
▁नियम	-1335
मीटर	-1336
▁अत्य	-1337
▁छोटे	-1338
▁भौ	-1339
▁शक्ति	-1340
▁पदार्थ	-1341
▁ज्ञान	-1342
शा	-1343
▁थीं	-1344
▁स्वी	-1345
▁विकसित	-1346
▁सामाजिक	-1347
▁परी	-1348
▁पश्चिम	-1349
▁इंड	-1350
▁रहते	-1351
▁नौ	-1352
र्ण	-1353
ोर्ट	-1354
▁मिश	-1355
▁होगा	-1356
▁कंपनी	-1357
▁देते	-1358
▁सिद्धांत	-1359
▁ऋ	-1360
तों	-1361
ालय	-1362
रूप	-1363
ितीय	-1364
ाज़	-1365
▁नियंत्र	-1366
▁उल्लेख	-1367
▁राजधानी	-1368
▁पहुँच	-1369
▁कप	-1370
▁जिनमें	-1371
▁चला	-1372
▁भगवान	-1373
▁जारी	-1374
▁व्यापार	-1375
▁पे	-1376
▁शताब्दी	-1377
▁11	-1378
and	-1379
नाथ	-1380
▁स्वयं	-1381
कर्ष	-1382
▁चिकित	-1383
्मी	-1384
▁बनी	-1385
▁मात्रा	-1386
्राष्ट्रीय	-1387
ाइट	-1388
▁ऊपर	-1389
▁साम्र	-1390
▁w	-1391
धारण	-1392
गु	-1393
धन	-1394
▁पां	-1395
ृत्त	-1396
▁खु	-1397
ोने	-1398
▁बाहर	-1399
▁विधान	-1400
▁0	-1401
▁b	-1402
▁गी	-1403
▁मृत्यु	-1404
▁आधारित	-1405
▁वन	-1406
▁भिन्न	-1407
▁विषय	-1408
विध	-1409
▁पता	-1410
.1	-1411
▁एल	-1412
▁दा	-1413
बे	-1414
र्न	-1415
▁स्वा	-1416
▁प्रकाशित	-1417
▁टीम	-1418
▁पक्ष	-1419
स्या	-1420
▁अं	-1421
▁किलो	-1422
▁मार	-1423
▁ध्यान	-1424
क्षित	-1425
▁छोड़	-1426
▁क्रिया	-1427
ion	-1428
..	-1429
▁उत्तरी	-1430
▁स्टेशन	-1431
▁पत्	-1432
▁चीन	-1433
▁चे	-1434
ार्क	-1435
st	-1436
▁तु	-1437
जों	-1438
मता	-1439
▁साम्राज्य	-1440
▁जगह	-1441
▁बदल	-1442
▁P	-1443
भार	-1444
▁संस्कृत	-1445
कर्	-1446
▁p	-1447
▁T	-1448
प्रिय	-1449
ांति	-1450
ायक	-1451
▁पहला	-1452
▁युग	-1453
▁कार्यक्रम	-1454
▁मद	-1455
▁समर्थ	-1456
क़	-1457
▁14	-1458
▁पूरी	-1459
▁ग्रंथ	-1460
पि	-1461
ंखला	-1462
▁प्रत	-1463
▁आग	-1464
▁बौ	-1465
▁आया	-1466
तु	-1467
ात्म	-1468
▁व्यक्त	-1469
▁विभाग	-1470
रिया	-1471
▁मि	-1472
ब्र	-1473
▁जनसं	-1474
▁देखा	-1475
▁एम	-1476
▁भाव	-1477
▁जर्म	-1478
क्रमण	-1479
▁सम्प	-1480
▁रेलवे	-1481
▁द्र	-1482
▁पर्या	-1483
.5	-1484
▁B	-1485
कालीन	-1486
▁एस	-1487
▁यात्रा	-1488
▁घटना	-1489
▁तुलना	-1490
ाइल	-1491
▁आने	-1492
रल	-1493
▁एशिया	-1494
▁गिर	-1495
▁इंज	-1496
▁महान	-1497
▁पाल	-1498
▁व्यवस्था	-1499
हम	-1500
▁छा	-1501
▁नए	-1502
क्सर	-1503
▁प्रारंभ	-1504
▁माल	-1505
तन	-1506
ंग्ल	-1507
▁f	-1508
आई	-1509
▁नीचे	-1510
▁आर्थ	-1511
▁वित	-1512
राज	-1513
गो	-1514
▁सत	-1515
▁अनुस	-1516
▁पश्चिमी	-1517
▁ऐसी	-1518
▁तैयार	-1519
िशा	-1520
▁प्रयास	-1521
▁फल	-1522
▁ताप	-1523
▁खोज	-1524
र्ज	-1525
▁13	-1526
▁संस्था	-1527
▁वैज्ञानिक	-1528
▁in	-1529
लाई	-1530
शील	-1531
▁मॉ	-1532
▁बिहार	-1533
▁इनमें	-1534
ह्म	-1535
▁योजना	-1536
ल्स	-1537
गण	-1538
▁उत्पादन	-1539
▁m	-1540
ात्मक	-1541
▁अप्र	-1542
▁पहा	-1543
नेट	-1544
▁विध	-1545
▁क्रम	-1546
▁इंटर	-1547
▁दृष्टि	-1548
▁दूसरी	-1549
▁जनसंख्या	-1550
▁वहाँ	-1551
▁शुरुआ	-1552
▁यही	-1553
शास्त्र	-1554
ंबर	-1555
द्द	-1556
▁मज	-1557
▁अक्सर	-1558
▁लोकप्रिय	-1559
ड़ों	-1560
हरा	-1561
▁क्रिक	-1562
▁किलोमीटर	-1563
ंडल	-1564
▁पूर्वी	-1565
▁लिखा	-1566
मेंट	-1567
▁संचाल	-1568
▁होना	-1569
▁पेश	-1570
भर	-1571
िरा	-1572
▁क़	-1573
षि	-1574
▁भूमि	-1575
त्ति	-1576
ाण	-1577
▁निकल	-1578
▁दशक	-1579
पूर्व	-1580
▁बंग	-1581
क्षेत्र	-1582
▁पाया	-1583
▁उठ	-1584
ॉट	-1585
▁सन	-1586
ृंखला	-1587
▁लगे	-1588
▁वंश	-1589
▁अंग्रेजी	-1590
ख़	-1591
तक	-1592
▁संस्थान	-1593
▁एन	-1594
▁नै	-1595
-1	-1596
▁सहायता	-1597
▁उत्तराखण्ड	-1598
▁वो	-1599
▁हिस्सा	-1600
▁रो	-1601
ेप	-1602
ज़ी	-1603
ro	-1604
र्च	-1605
ानीय	-1606
▁जय	-1607
▁रहने	-1608
▁सम्ब	-1609
▁बिना	-1610
सभा	-1611
िद	-1612
▁अमेरिकी	-1613
▁उसी	-1614
▁193	-1615
धिकार	-1616
▁पार्टी	-1617
कीय	-1618
▁रॉ	-1619
▁जर	-1620
▁सदी	-1621
▁विशिष्ट	-1622
▁ग्रह	-1623
ेतु	-1624
▁बल्	-1625
▁निर्देशांक	-1626
▁आर्थिक	-1627
ाव	-1628
▁विरोध	-1629
▁दल	-1630
▁लाल	-1631
▁अभी	-1632
▁लाख	-1633
▁उद्योग	-1634
▁d	-1635
▁बॉ	-1636
▁प्रवेश	-1637
नु	-1638
▁आकार	-1639
▁प्रस्त	-1640
्यो	-1641
▁उद्देश	-1642
20	-1643
▁क्रिकेट	-1644
▁ट्रे	-1645
▁स्पष्ट	-1646
▁इनका	-1647
▁प्रशास	-1648
ोलन	-1649
▁मिलता	-1650
▁तीस	-1651
▁प्रदर्शन	-1652
▁रहती	-1653
▁हेतु	-1654
्मिक	-1655
▁ब्रह्म	-1656
▁लक्ष	-1657
▁पूरा	-1658
ing	-1659
▁कांग	-1660
जय	-1661
तिम	-1662
ाजी	-1663
ाउ	-1664
▁पड़ा	-1665
▁85	-1666
▁एड	-1667
फ्ट	-1668
तियों	-1669
त्री	-1670
िनी	-1671
कु	-1672
न्त्र	-1673
ियाई	-1674
▁वर्णन	-1675
▁संगठन	-1676
▁नई	-1677
▁स्थानीय	-1678
▁बौद्ध	-1679
ष्य	-1680
▁बस	-1681
▁आते	-1682
▁इत	-1683
िली	-1684
▁सके	-1685
▁प्रबंध	-1686
▁विदेश	-1687
▁पंच	-1688
▁संग्रह	-1689
▁पूरे	-1690
हन	-1691
स्ल	-1692
▁इंग्ल	-1693
▁अंतर्राष्ट्रीय	-1694
▁ब्ल	-1695
▁अफ्री	-1696
▁ज्यादा	-1697
▁हे	-1698
ादी	-1699
▁स्कूल	-1700
देव	-1701
▁बच	-1702
▁कर्म	-1703
तिहासिक	-1704
▁विप	-1705
▁किंतु	-1706
चान	-1707
ड्ड	-1708
▁समस्या	-1709
विज्ञान	-1710
▁लंब	-1711
▁विस्तार	-1712
ेंड	-1713
▁ऑफ़	-1714
ाता	-1715
▁बंद	-1716
▁दर्शन	-1717
▁प्रचल	-1718
ेंस	-1719
▁तकनी	-1720
▁पर्य	-1721
▁परिवर्तन	-1722
ताल	-1723
▁ति	-1724
विधा	-1725
ैक	-1726
.4	-1727
▁अवधि	-1728
▁विभाज	-1729
▁कठ	-1730
▁हों	-1731
as	-1732
भाषा	-1733
▁निर्वा	-1734
▁लाभ	-1735
▁द्वितीय	-1736
ोजित	-1737
▁कोड	-1738
न्यास	-1739
्वज	-1740
▁समाप्त	-1741
▁प्रभावित	-1742
▁आत्म	-1743
▁पुस्तक	-1744
▁सां	-1745
▁रोम	-1746
र्प	-1747
▁केन्द्र	-1748
▁वृद्धि	-1749
.8	-1750
▁24	-1751
रम	-1752
वै	-1753
▁सिक	-1754
▁ते	-1755
स्वर	-1756
▁इस्ला	-1757
▁अंतिम	-1758
▁राजनीतिक	-1759
▁अक्ष	-1760
▁भौतिक	-1761
स्व	-1762
लि	-1763
▁राय	-1764
ol	-1765
▁रिक	-1766
▁बोल	-1767
वेद	-1768
स्क	-1769
▁एक्स	-1770
▁रु	-1771
▁आवश्यकता	-1772
▁रू	-1773
▁आबाद	-1774
▁हिंदी	-1775
लेज	-1776
डे	-1777
▁जे	-1778
▁पर्वत	-1779
▁शुरुआत	-1780
न्दर	-1781
टे	-1782
▁दूरी	-1783
▁लौ	-1784
▁तट	-1785
द्व	-1786
ोर्ड	-1787
▁प्रती	-1788
▁महार	-1789
▁तरी	-1790
▁मनुष	-1791
ठी	-1792
▁30	-1793
▁मैच	-1794
▁मो	-1795
▁शाह	-1796
ज्ञा	-1797
▁हिन्दू	-1798
▁78	-1799
▁शैली	-1800
ायर	-1801
▁क्षमता	-1802
▁व्यापक	-1803
▁धार्मिक	-1804
▁बर्	-1805
▁रखने	-1806
▁पुरुष	-1807
▁प्रतिश	-1808
▁संबंधित	-1809
ृह	-1810
▁निकट	-1811
▁विशाल	-1812
am	-1813
▁तत्व	-1814
फा	-1815
▁इन्हें	-1816
▁घा	-1817
▁डि	-1818
▁आता	-1819
ur	-1820
▁यून	-1821
अल	-1822
▁सुविधा	-1823
▁पाठ	-1824
▁लेने	-1825
▁माता	-1826
▁दूसरा	-1827
▁तेल	-1828
▁रक्त	-1829
▁कौ	-1830
▁ग्री	-1831
▁चै	-1832
वासी	-1833
▁ऐतिहासिक	-1834
िको	-1835
▁खे	-1836
▁वाप	-1837
▁जनता	-1838
▁मिली	-1839
थित	-1840
शल	-1841
▁समुद्र	-1842
गोल	-1843
▁2008	-1844
▁संस्करण	-1845
▁D	-1846
▁इन्होंने	-1847
▁जाति	-1848
ग़	-1849
सत	-1850
▁तम	-1851
▁आबादी	-1852
▁प्रसार	-1853
▁विधि	-1854
▁नियंत्रण	-1855
▁मिश्र	-1856
कारों	-1857
▁सित	-1858
ज़ा	-1859
लिख	-1860
गम	-1861
▁आरंभ	-1862
▁निकाल	-1863
▁2007	-1864
▁न्याया	-1865
▁मीटर	-1866
▁अली	-1867
▁=	-1868
ब्ल	-1869
▁संस	-1870
▁लॉ	-1871
्रो	-1872
▁इनकी	-1873
▁पंजा	-1874
वंश	-1875
▁प्रस्तुत	-1876
एम	-1877
ादा	-1878
▁पुल	-1879
गू	-1880
▁दिशा	-1881
▁and	-1882
▁सात	-1883
▁श्रेणी	-1884
मिक	-1885
▁पश	-1886
▁मैं	-1887
▁विद्व	-1888
▁प्रतिशत	-1889
▁उद्देश्य	-1890
वाले	-1891
▁कोशिका	-1892
▁अर्था	-1893
▁ऊर्जा	-1894
▁समुदाय	-1895
▁ऊँच	-1896
मंत्री	-1897
दर	-1898
il	-1899
▁अत	-1900
स्वरूप	-1901
ूँ	-1902
▁पांच	-1903
▁पश्चात	-1904
▁उम	-1905
ुन	-1906
▁एंड	-1907
▁जनवरी	-1908
▁सम्	-1909
▁ऑस्ट्र	-1910
▁सूर्	-1911
▁शक	-1912
▁धारा	-1913
▁कमी	-1914
▁जीत	-1915
▁विल	-1916
▁अन्तर	-1917
11	-1918
त्रों	-1919
▁नर	-1920
▁मोट	-1921
▁अरब	-1922
इन	-1923
▁वज	-1924
डिया	-1925
▁रेड	-1926
सिंह	-1927
▁संस्कृति	-1928
om	-1929
▁दिए	-1930
लिखित	-1931
▁N	-1932
▁बेह	-1933
लेक्ट	-1934
▁कृष्ण	-1935
▁हास	-1936
.0	-1937
भाष	-1938
▁राष्ट्रपति	-1939
▁बहु	-1940
▁जिन्हें	-1941
▁प्राकृतिक	-1942
▁जून	-1943
ेस	-1944
▁बांग	-1945
▁बैठ	-1946
▁सहित	-1947
▁मिस	-1948
▁बर	-1949
▁मई	-1950
▁शाखा	-1951
ज़र	-1952
▁वायु	-1953
▁कथा	-1954
▁उपकरण	-1955
▁चिकित्सा	-1956
▁आयु	-1957
▁पढ़	-1958
▁H	-1959
▁स्थल	-1960
▁प्रतिनि	-1961
▁अवस्था	-1962
▁192	-1963
▁सुरक्षा	-1964
ent	-1965
्वीप	-1966
▁रोक	-1967
▁प्रदर्शित	-1968
▁कांग्रेस	-1969
राष्ट्रीय	-1970
▁दिखाई	-1971
▁वस्तु	-1972
▁स्वीकार	-1973
▁खिलाफ	-1974
चार्य	-1975
▁निश्च	-1976
▁पैदा	-1977
▁विवाह	-1978
दाय	-1979
धे	-1980
ेश्वर	-1981
▁बजे	-1982
▁बैंक	-1983
्रिया	-1984
▁प्रस	-1985
▁कहला	-1986
▁R	-1987
▁2009	-1988
ीकरण	-1989
▁डिज	-1990
▁सिर	-1991
▁निर	-1992
▁नागर	-1993
▁हवाई	-1994
▁जाप	-1995
▁G	-1996
▁विद्युत	-1997
▁धात	-1998
बद्ध	-1999
▁फ्रांस	-2000
टल	-2001
पास	-2002
▁मूर्	-2003
▁सुन	-2004
▁अंतर्गत	-2005
्रोत	-2006
▁घोषणा	-2007
▁मही	-2008
▁अपे	-2009
ay	-2010
ाक	-2011
द्वीप	-2012
▁व्यवहार	-2013
▁री	-2014
पे	-2015
▁पुराने	-2016
▁मल	-2017
ड़क	-2018
आर	-2019
डल	-2020
एल	-2021
▁बनाए	-2022
▁प्रचलित	-2023
▁पहचान	-2024
▁स्वतंत्रता	-2025
▁समर्थन	-2026
▁मार्च	-2027
▁सुधार	-2028
▁दिस	-2029
▁करें	-2030
▁घंट	-2031
▁धी	-2032
▁धन	-2033
▁पीछ	-2034
▁परीक्षण	-2035
िकल	-2036
श्वर	-2037
▁कम्प	-2038
▁देवी	-2039
्ज	-2040
▁सामने	-2041
ूर्ण	-2042
लाह	-2043
▁नेट	-2044
▁कोल	-2045
ac	-2046
ुद्ध	-2047
बार	-2048
▁निर्मित	-2049
इस	-2050
▁जानकारी	-2051
▁मंत्र	-2052
▁बज	-2053
ृत्व	-2054
▁बताया	-2055
जात	-2056
▁मिन	-2057
वें	-2058
रित	-2059
▁सूची	-2060
▁अध्यक्ष	-2061
▁करी	-2062
▁अल्	-2063
▁अनुमान	-2064
▁भु	-2065
▁तंत्र	-2066
▁सूर्य	-2067
ोरी	-2068
▁इंग्लैंड	-2069
▁संके	-2070
▁मदद	-2071
▁गुरु	-2072
▁पड़ता	-2073
ंबई	-2074
्टर	-2075
▁एक्	-2076
▁लै	-2077
ूबर	-2078
▁पद्ध	-2079
रि	-2080
गरी	-2081
▁गांव	-2082
▁माइ	-2083
▁बांग्ला	-2084
ंपरा	-2085
हि	-2086
▁सुल	-2087
▁परंतु	-2088
▁गांधी	-2089
▁अफ्रीका	-2090
▁परन्तु	-2091
▁शीर्ष	-2092
▁आरम्भ	-2093
▁किमी	-2094
▁शे	-2095
वस्था	-2096
▁अभिने	-2097
▁दिनों	-2098
▁दक्षिणी	-2099
▁डाल	-2100
▁नेत	-2101
▁बिल	-2102
इड	-2103
▁दिव	-2104
िटी	-2105
्यूटर	-2106
नगर	-2107
▁बाज	-2108
▁उपस्थित	-2109
▁नियु	-2110
▁सहयोग	-2111
▁हज	-2112
▁नम	-2113
नो	-2114
▁वजह	-2115
▁गा	-2116
▁हाल	-2117
▁कश	-2118
▁किन्तु	-2119
▁h	-2120
मि	-2121
सू	-2122
▁अगस्त	-2123
▁ट्रेन	-2124
▁भीतर	-2125
▁भाई	-2126
▁टै	-2127
▁लि	-2128
▁चरण	-2129
स्थ्य	-2130
▁अप्रैल	-2131
▁नेतृत्व	-2132
▁अनुसंध	-2133
▁जिसकी	-2134
▁प्रेर	-2135
डियो	-2136
▁एयर	-2137
ad	-2138
।"	-2139
▁खा	-2140
ग्री	-2141
मति	-2142
▁कार्ब	-2143
▁सैनिक	-2144
▁प्रेम	-2145
▁इन्	-2146
▁सम्मानित	-2147
el	-2148
▁मौजूद	-2149
▁कृषि	-2150
▁राज्यों	-2151
▁लक्षण	-2152
▁अभिया	-2153
▁तहत	-2154
▁आकर्ष	-2155
▁पिछ	-2156
▁सम्बन्ध	-2157
▁रि	-2158
▁परंपरा	-2159
▁करे	-2160
जरा	-2161
षद	-2162
▁श्रृंखला	-2163
▁मिट	-2164
ोफ	-2165
▁छोटी	-2166
ांड	-2167
▁आंद	-2168
▁प्रौ	-2169
▁निर्ण	-2170
ऊँ	-2171
▁संरचना	-2172
▁जोड़	-2173
.2	-2174
30	-2175
▁भाषाओं	-2176
▁कहानी	-2177
▁2006	-2178
▁प्रमाण	-2179
▁गीत	-2180
▁ग्रे	-2181
त्त्व	-2182
▁हार	-2183
▁भागों	-2184
▁191	-2185
म्मद	-2186
▁प्ले	-2187
▁शब्दों	-2188
▁संभाव	-2189
▁जम	-2190
▁साधारण	-2191
▁भे	-2192
▁वार	-2193
▁उपन्यास	-2194
▁अक्ट	-2195
▁स्रोत	-2196
एन	-2197
विधान	-2198
▁मर	-2199
लेक्ट्र	-2200
स्ताव	-2201
्राम	-2202
▁लिप	-2203
हरी	-2204
▁जुलाई	-2205
न्थ	-2206
▁बेट	-2207
▁कुमा	-2208
▁ऊंच	-2209
▁आश	-2210
▁चम	-2211
स्लिम	-2212
▁काव्य	-2213
तौर	-2214
लीय	-2215
ुरा	-2216
▁अक्टूबर	-2217
ग्	-2218
▁n	-2219
▁अगर	-2220
भारत	-2221
▁अंक	-2222
▁U	-2223
▁अनुसंधान	-2224
दमी	-2225
▁मश	-2226
▁आलो	-2227
ीक	-2228
▁प्रतिक	-2229
▁E	-2230
▁शोध	-2231
▁to	-2232
ॉर्ड	-2233
▁मुह	-2234
▁विमानक्षेत्र	-2235
▁नागरिक	-2236
▁दिख	-2237
ुड	-2238
▁F	-2239
▁मन्द	-2240
▁लगता	-2241
िनियम	-2242
▁सागर	-2243
ंडी	-2244
▁योगदान	-2245
▁देती	-2246
▁करोड़	-2247
▁अपेक्षा	-2248
▁ऑस्ट्रेल	-2249
▁पाए	-2250
▁स्वास्थ्य	-2251
णों	-2252
▁सफलता	-2253
un	-2254
us	-2255
▁सार्वज	-2256
▁हिम	-2257
शि	-2258
▁सूचना	-2259
▁राजनीति	-2260
▁चा	-2261
थर	-2262
▁21	-2263
्रिय	-2264
50	-2265
पु	-2266
▁उनमें	-2267
▁मिलती	-2268
ोड़ा	-2269
▁मना	-2270
पक	-2271
▁कानून	-2272
▁जिसने	-2273
धारित	-2274
र्षि	-2275
▁झील	-2276
▁चीनी	-2277
▁प्रान्त	-2278
▁मनो	-2279
ल्ल	-2280
▁निम्नलिखित	-2281
ियोग	-2282
▁बंगाल	-2283
राब	-2284
▁कॉलेज	-2285
▁यौ	-2286
▁बच्चों	-2287
▁बढ़ा	-2288
चि	-2289
▁क्या	-2290
.6	-2291
▁प्रस्ताव	-2292
▁विश्वास	-2293
▁चक्र	-2294
िवार	-2295
▁शक्त	-2296
▁L	-2297
ष्प	-2298
▁महाराज	-2299
▁साक्ष	-2300
▁पीछे	-2301
िना	-2302
▁फी	-2303
▁मुस्लिम	-2304
▁l	-2305
▁मोह	-2306
▁यूरोपीय	-2307
▁प्रोट	-2308
▁सर्वा	-2309
▁खान	-2310
▁मेल	-2311
▁दौ	-2312
▁आक्रमण	-2313
▁बाव	-2314
ष्म	-2315
▁कुमाऊँ	-2316
▁खुद	-2317
▁दस	-2318
▁ब्रिटेन	-2319
▁बां	-2320
▁तमिल	-2321
▁फुट	-2322
्वा	-2323
▁चू	-2324
▁पाँच	-2325
▁गैर	-2326
ड़ियों	-2327
खी	-2328
साथ	-2329
ानु	-2330
▁शासक	-2331
चित्र	-2332
▁सार्वजनिक	-2333
▁गढ़	-2334
ृत्ति	-2335
णु	-2336
▁मनुष्य	-2337
▁उत्स	-2338
▁मानते	-2339
▁लाइ	-2340
गणना	-2341
▁सैन	-2342
▁गौ	-2343
मत	-2344
▁निर्भर	-2345
▁शि	-2346
▁वित्त	-2347
खन	-2348
ियोजना	-2349
वेश	-2350
▁कश्मी	-2351
क्षेप	-2352
▁संभ	-2353
▁पो	-2354
▁उपचार	-2355
▁माँ	-2356
ंतर	-2357
▁मुंबई	-2358
▁सरकारी	-2359
▁बल्कि	-2360
▁पद्धति	-2361
▁वापस	-2362
िति	-2363
▁खास	-2364
मर	-2365
▁मन्दिर	-2366
▁टाइ	-2367
ंदन	-2368
ब्ब	-2369
िक्स	-2370
▁अतः	-2371
▁लेखक	-2372
▁आयोजित	-2373
कर्ता	-2374
▁अफ़	-2375
▁जैसा	-2376
▁कविता	-2377
ष्क	-2378
्से	-2379
▁सप	-2380
▁परियोजना	-2381
▁2010	-2382
ूरत	-2383
▁प्रौद्योग	-2384
▁एच	-2385
▁किन	-2386
▁अस्त	-2387
▁उन्	-2388
टों	-2389
रोध	-2390
▁संचालित	-2391
▁ध्व	-2392
▁वाह	-2393
▁अंतरराष्ट्रीय	-2394
ंसा	-2395
▁औसत	-2396
▁जनगणना	-2397
ंडा	-2398
िस्थित	-2399
▁अनुवाद	-2400
▁प्रयुक्त	-2401
▁अश	-2402
▁संय	-2403
▁वहां	-2404
▁निवास	-2405
वेयर	-2406
घा	-2407
▁बेल	-2408
▁देखने	-2409
▁रक्षा	-2410
द्रा	-2411
et	-2412
नपुर	-2413
▁वास्तविक	-2414
▁डिग	-2415
▁चुके	-2416
▁विविध	-2417
क्सी	-2418
▁मुक्त	-2419
▁सहायक	-2420
स्टर	-2421
▁सप्त	-2422
▁संविधान	-2423
▁28	-2424
नर	-2425
▁26	-2426
▁ग्राम	-2427
प्प	-2428
रवरी	-2429
न्ट	-2430
▁कर्	-2431
▁ठीक	-2432
▁उम्र	-2433
तल	-2434
▁जैसी	-2435
ोद	-2436
▁50	-2437
▁गैस	-2438
पात	-2439
▁स्वरूप	-2440
▁रिप	-2441
▁इका	-2442
▁विजय	-2443
▁पट	-2444
▁अध्या	-2445
▁कहीं	-2446
▁100	-2447
▁इलेक्ट्र	-2448
वर्ती	-2449
ut	-2450
▁आंदोलन	-2451
▁लु	-2452
▁उसमें	-2453
▁न्याय	-2454
▁इत्या	-2455
चर	-2456
▁डॉ॰	-2457
▁नीति	-2458
▁ज्ञात	-2459
ंका	-2460
▁ब्राह	-2461
▁पक	-2462
▁आए	-2463
वों	-2464
▁शिक	-2465
▁प्रांत	-2466
्रु	-2467
▁परमाण	-2468
▁W	-2469
▁संबंधी	-2470
▁डिग्री	-2471
ष्ट्र	-2472
▁श्व	-2473
▁आठ	-2474
गंज	-2475
फ़ी	-2476
▁उपा	-2477
▁बुद्ध	-2478
▁जैन	-2479
स्कृतिक	-2480
▁व्याख्या	-2481
नाम	-2482
यान	-2483
ष्णु	-2484
ृति	-2485
▁लगी	-2486
दम	-2487
▁चुका	-2488
▁भोजन	-2489
चक	-2490
▁विस्तृत	-2491
▁गाय	-2492
द्यपि	-2493
▁जिन्होंने	-2494
गार	-2495
▁22	-2496
ठा	-2497
▁निजी	-2498
▁चाल	-2499
▁लगाया	-2500
ॉक	-2501
▁खंड	-2502
ेडकर	-2503
▁पंजाब	-2504
▁रास	-2505
▁अग्र	-2506
फर	-2507
वर्क	-2508
▁आइ	-2509
▁इत्यादि	-2510
▁मान्यता	-2511
▁ताकि	-2512
धर	-2513
▁मुख्यालय	-2514
ंटी	-2515
▁आन	-2516
्लेषण	-2517
मार्	-2518
▁इंटरनेट	-2519
▁लड़	-2520
▁सर्वाधिक	-2521
▁यद्यपि	-2522
▁अवसर	-2523
खंड	-2524
▁{	-2525
▁निश्चित	-2526
▁फार	-2527
राव	-2528
▁प्रकृति	-2529
▁सदस्यों	-2530
▁निभा	-2531
▁संकेत	-2532
▁प्रशिक्ष	-2533
▁साइ	-2534
▁मेट	-2535
▁सक्रिय	-2536
▁लागू	-2537
▁कट	-2538
▁जाएगा	-2539
ुरी	-2540
▁घंटे	-2541
▁तल	-2542
बू	-2543
्क	-2544
▁आमतौर	-2545
▁अनुभव	-2546
ृत्य	-2547
रीत	-2548
▁जर्मनी	-2549
▁मात्र	-2550
ताब	-2551
▁अका	-2552
▁अड्ड	-2553
सीसी	-2554
▁अंग्रेज़ी	-2555
▁पाय	-2556
▁रूस	-2557
▁याद	-2558
प्रदेश	-2559
▁कैल	-2560
▁उड़	-2561
▁प्रचार	-2562
▁अधिकतर	-2563
श्रे	-2564
▁राजस्थान	-2565
▁रेखा	-2566
▁2005	-2567
▁चर	-2568
▁हासिल	-2569
▁रस	-2570
▁गणना	-2571
टिल	-2572
pl	-2573
▁स्थानों	-2574
▁दुर्	-2575
▁अद	-2576
▁अच्छी	-2577
▁मिनट	-2578
▁अम्	-2579
क्ष्म	-2580
▁वेब	-2581
′′	-2582
शनल	-2583
ियत	-2584
▁190	-2585
▁तरफ	-2586
शाला	-2587
▁लो	-2588
्‍य	-2589
▁नया	-2590
im	-2591
लाल	-2592
▁उससे	-2593
▁संभव	-2594
ेंद	-2595
",	-2596
▁गर्	-2597
ॉम	-2598
▁नेपाल	-2599
▁मंत्री	-2600
ादन	-2601
वाया	-2602
▁खरी	-2603
▁सांस्कृतिक	-2604
▁बांग्लादेश	-2605
▁खो	-2606
▁सें	-2607
▁गुजरा	-2608
ॉप	-2609
▁संसद	-2610
▁निर्णय	-2611
यल	-2612
▁सामग्री	-2613
▁नेता	-2614
▁सीमित	-2615
िड	-2616
▁दुर्ग	-2617
▁भावना	-2618
▁रसाय	-2619
▁बोली	-2620
ख्यात	-2621
ंकर	-2622
▁स्म	-2623
▁अधिनियम	-2624
स्ती	-2625
ॉफ्ट	-2626
▁डा	-2627
▁बाग	-2628
▁मिलियन	-2629
▁समिति	-2630
▁बावजूद	-2631
▁निर्वाचन	-2632
▁उत्	-2633
▁देना	-2634
▁पुलिस	-2635
रेट	-2636
▁विपरीत	-2637
▁न्यायालय	-2638
ोरा	-2639
▁सही	-2640
▁23	-2641
▁आसपास	-2642
▁महारा	-2643
▁मिले	-2644
▁गल	-2645
▁एक्स्प	-2646
▁लिखी	-2647
▁सतह	-2648
ुरु	-2649
▁अनुमति	-2650
▁शुरु	-2651
▁गंगा	-2652
▁प्रौद्योगिकी	-2653
बर्ग	-2654
▁नेटवर्क	-2655
धिकारिक	-2656
▁लड़ा	-2657
्पना	-2658
▁मामले	-2659
सिक	-2660
▁छोटा	-2661
▁तत्	-2662
ियल	-2663
▁इंडिया	-2664
▁सम्रा	-2665
▁सरल	-2666
▁पूजा	-2667
▁बनाई	-2668
ot	-2669
▁तापमान	-2670
▁भारी	-2671
ec	-2672
ंजन	-2673
▁प्रय	-2674
▁अमरी	-2675
▁इस्लाम	-2676
▁कार्यों	-2677
स्य	-2678
▁नद	-2679
▁निर्धारित	-2680
िकोण	-2681
▁तिर	-2682
ia	-2683
▁शो	-2684
▁व्यवसाय	-2685
▁मामलों	-2686
▁संश	-2687
10	-2688
▁अधीन	-2689
▁दृष्ट	-2690
▁सिर्	-2691
ोत्स	-2692
▁अत्यंत	-2693
न्या	-2694
▁मू	-2695
▁अभिन	-2696
न्ना	-2697
ूब	-2698
▁करीब	-2699
▁मिट्टी	-2700
▁धातु	-2701
▁नियुक्त	-2702
▁व्याव	-2703
▁आधिकारिक	-2704
▁प्रारंभिक	-2705
▁क्व	-2706
▁दृश्य	-2707
▁परिस	-2708
▁सत्य	-2709
व्र	-2710
▁वेल	-2711
▁पत्नी	-2712
▁चलता	-2713
▁धीरे	-2714
म्स	-2715
▁लीग	-2716
ारण	-2717
▁एक्स्प्रेस	-2718
▁40	-2719
राम	-2720
सागर	-2721
▁शास्त्र	-2722
▁प्रतिनिध	-2723
▁सर्वो	-2724
▁संघर्ष	-2725
▁लेते	-2726
ेय	-2727
▁रै	-2728
न्ड	-2729
नै	-2730
ाद्य	-2731
▁विभाजित	-2732
निर्	-2733
ation	-2734
▁टेली	-2735
▁रखते	-2736
▁ज्यो	-2737
▁मैदान	-2738
▁विधानसभा	-2739
▁विदेशी	-2740
बंधित	-2741
▁हवा	-2742
▁पर्याप्त	-2743
▁मिलते	-2744
▁घोषित	-2745
▁वास्तव	-2746
ातर	-2747
▁जहा	-2748
▁बाजार	-2749
क्टर	-2750
▁आती	-2751
मैन	-2752
▁कश्मीर	-2753
्मण	-2754
▁सारे	-2755
▁दै	-2756
ंघ	-2757
▁होगी	-2758
▁परिवर्त	-2759
राध	-2760
▁इंजीन	-2761
▁फ्ल	-2762
▁इमार	-2763
▁सेंट	-2764
▁ग्रन्थ	-2765
▁परमाणु	-2766
▁मुसल	-2767
▁खिलाड़ी	-2768
▁दिल	-2769
▁2011	-2770
िलित	-2771
थमिक	-2772
▁फूल	-2773
नाइट	-2774
▁वीर	-2775
▁भवि	-2776
▁सिल	-2777
▁अत्यधिक	-2778
▁प्रधानमंत्री	-2779
▁उन्होने	-2780
▁सूक्ष्म	-2781
▁महिलाओं	-2782
कुल	-2783
▁जापान	-2784
भु	-2785
▁प्रतियोग	-2786
id	-2787
▁विद्र	-2788
च्छा	-2789
यण	-2790
▁हिस्से	-2791
▁चन्द्र	-2792
▁दबा	-2793
▁गोल	-2794
▁स्‍	-2795
▁पत्रिका	-2796
▁किंग	-2797
▁प्राथमिक	-2798
▁मरा	-2799
▁रिकॉर्ड	-2800
▁अक	-2801
▁अहम	-2802
▁ऑस्ट्रेलिया	-2803
▁आदेश	-2804
ig	-2805
▁निष्	-2806
▁चले	-2807
▁महल	-2808
▁भविष्य	-2809
▁मास	-2810
ॉलर	-2811
▁संद	-2812
बम	-2813
▁वेद	-2814
डन	-2815
भू	-2816
अलग	-2817
▁नाटक	-2818
भीर	-2819
▁बरा	-2820
°0	-2821
▁सभ	-2822
▁प्रबंधन	-2823
उस	-2824
▁e	-2825
न्नई	-2826
वाली	-2827
▁हाइड	-2828
▁नृत्य	-2829
ायनिक	-2830
▁औद्योग	-2831
▁कोशिश	-2832
▁गठन	-2833
ist	-2834
▁मांग	-2835
▁सम्राट	-2836
▁जिनके	-2837
्तान	-2838
ेंगे	-2839
▁नाग	-2840
न्ध्र	-2841
▁बच्चे	-2842
▁मिलकर	-2843
▁दू	-2844
ृद	-2845
▁बनने	-2846
ख्य	-2847
▁सम्मिलित	-2848
क्षम	-2849
▁ग्ल	-2850
▁जुड़े	-2851
▁विष्णु	-2852
्टन	-2853
▁बदला	-2854
-2	-2855
▁गू	-2856
ट्र	-2857
▁स्ना	-2858
▁आन्ध्र	-2859
▁सत्ता	-2860
▁असम	-2861
नियों	-2862
▁मॉडल	-2863
▁निर्मा	-2864
▁पुनः	-2865
▁79	-2866
▁पव	-2867
▁अवश	-2868
यात	-2869
▁दवा	-2870
▁हिंदू	-2871
▁अधार	-2872
त्न	-2873
▁साध	-2874
▁घट	-2875
▁प्रकाशन	-2876
▁सप्तर्षि	-2877
ag	-2878
▁लंदन	-2879
दास	-2880
▁जिम	-2881
▁एल्	-2882
▁पाई	-2883
▁विद्यालय	-2884
श्रेष्ठ	-2885
▁महीने	-2886
▁वर्षा	-2887
▁वीं	-2888
▁जाये	-2889
▁एज	-2890
▁2000	-2891
▁मूल्य	-2892
▁डिजाइन	-2893
ंसर	-2894
▁रात	-2895
▁रसायन	-2896
▁शेष	-2897
▁घाटी	-2898
▁मानक	-2899
▁विशेषता	-2900
णि	-2901
मल	-2902
▁युवा	-2903
राज्य	-2904
कभी	-2905
▁जिनका	-2906
ँचा	-2907
▁2014	-2908
दिक	-2909
▁क्लब	-2910
▁कुमार	-2911
▁अंदर	-2912
ul	-2913
ाग	-2914
▁कंप्यूटर	-2915
ैर	-2916
▁सच	-2917
▁गं	-2918
मार्ग	-2919
▁ज्योति	-2920
्यार	-2921
▁करा	-2922
▁समाचार	-2923
कता	-2924
40	-2925
ir	-2926
▁जॉन	-2927
▁ग़	-2928
▁2004	-2929
▁अधिकारी	-2930
स्फ	-2931
ातार	-2932
ान्	-2933
▁जंग	-2934
▁शादी	-2935
▁लक्ष्य	-2936
▁जॉ	-2937
▁भवन	-2938
▁मुर	-2939
▁सूत्र	-2940
▁मुहम्मद	-2941
त्ती	-2942
▁पार्क	-2943
व्यवस्था	-2944
▁तीर्थ	-2945
▁पर्यावरण	-2946
▁रानी	-2947
▁मुसलमान	-2948
▁अर्ज	-2949
▁स्वामी	-2950
iv	-2951
▁ड्र	-2952
▁स्कॉट	-2953
ंडर	-2954
▁चेन्नई	-2955
▁कन्न	-2956
ोली	-2957
▁चंद्र	-2958
▁महत्त्व	-2959
िकन	-2960
▁मजब	-2961
▁प्रतिक्रिया	-2962
द्दीन	-2963
▁सैन्य	-2964
ेंडर	-2965
स्‍	-2966
▁अकादमी	-2967
दातर	-2968
▁पालन	-2969
डु	-2970
▁तर्क	-2971
▁लगातार	-2972
▁सड़क	-2973
संद	-2974
▁कैंसर	-2975
ेंज	-2976
▁फॉ	-2977
ैया	-2978
घु	-2979
▁चर्	-2980
रु	-2981
वट	-2982
▁विवाद	-2983
▁अच्छा	-2984
थी	-2985
▁पुराण	-2986
▁K	-2987
▁क्रांति	-2988
हाबाद	-2989
▁पेट	-2990
▁लम्ब	-2991
रस	-2992
▁आर्	-2993
कान	-2994
भूम	-2995
▁मध	-2996
▁जर्मन	-2997
केट	-2998
▁आलोचना	-2999
बि	-3000
▁औद्योगिक	-3001
▁व्यक्तियों	-3002
ल्क	-3003
▁विक्रम	-3004
लम	-3005
▁कव	-3006
गति	-3007
मात्र	-3008
▁गर्म	-3009
▁सक्षम	-3010
▁विन	-3011
▁पवित्र	-3012
▁सर्वश्रेष्ठ	-3013
▁लखन	-3014
▁वाता	-3015
स्ति	-3016
',	-3017
▁लिपि	-3018
डम	-3019
▁परिषद	-3020
▁किनारे	-3021
▁सिस्ट	-3022
.3	-3023
▁संदर्भ	-3024
▁जाय	-3025
▁चर्च	-3026
▁रासायनिक	-3027
▁वर्गी	-3028
▁V	-3029
गन	-3030
▁जित	-3031
▁लौट	-3032
▁डॉलर	-3033
▁नाट	-3034
िश्च	-3035
ोग्राम	-3036
▁,	-3037
न्‍	-3038
▁ईश्वर	-3039
ोषण	-3040
▁अल्प	-3041
कुम	-3042
ज़न	-3043
राबाद	-3044
गिक	-3045
▁अनुर	-3046
▁तरीके	-3047
ेम्स	-3048
▁योग्य	-3049
पू	-3050
ेशा	-3051
▁हत्या	-3052
▁प्रतिष्ठ	-3053
ेदार	-3054
्ताह	-3055
▁पिछले	-3056
ौली	-3057
माने	-3058
ारोह	-3059
▁अस्प	-3060
गला	-3061
▁बिक	-3062
▁अस्तित्व	-3063
▁वस्तुओं	-3064
▁संभावना	-3065
चय	-3066
▁बाँ	-3067
▁परिस्थित	-3068
ूनी	-3069
▁रुप	-3070
सु	-3071
र्मा	-3072
ोव	-3073
▁डाय	-3074
▁29	-3075
वण	-3076
▁पृष्ठ	-3077
▁बराबर	-3078
▁सुल्तान	-3079
▁प्रकट	-3080
ैट	-3081
▁सन्द	-3082
▁युक्त	-3083
▁आयोजन	-3084
▁बीज	-3085
▁पहल	-3086
▁सुंदर	-3087
▁चारों	-3088
ैण्ड	-3089
▁सिद्धान्त	-3090
वीय	-3091
खे	-3092
▁उल्लेखनीय	-3093
▁नष्ट	-3094
▁साह	-3095
▁परम	-3096
▁मील	-3097
ारायण	-3098
▁तीव्र	-3099
▁वातावरण	-3100
▁शहरों	-3101
▁2001	-3102
▁चैन	-3103
▁ईर	-3104
श्म	-3105
▁--	-3106
घर	-3107
▁रेडियो	-3108
▁क्षेत्रफल	-3109
▁सिर्फ	-3110
▁संगठ	-3111
▁मुद्रा	-3112
▁समझौ	-3113
▁अर्थात्	-3114
▁कार्यालय	-3115
▁प्रतियोगिता	-3116
▁आत	-3117
▁प्रभा	-3118
कल्प	-3119
os	-3120
▁यौगिक	-3121
ंजी	-3122
▁जीवा	-3123
ियस	-3124
▁th	-3125
▁बचा	-3126
▁अभिनय	-3127
▁समी	-3128
पद	-3129
किंग	-3130
▁वहीं	-3131
ित्य	-3132
पत	-3133
▁2012	-3134
▁गंभीर	-3135
▁अभियान	-3136
▁दिसम्बर	-3137
▁हॉ	-3138
▁फिल्मों	-3139
▁प्रजात	-3140
▁रिपोर्ट	-3141
वर्ष	-3142
▁फैल	-3143
▁अंश	-3144
▁हमारे	-3145
▁गणित	-3146
्वे	-3147
▁इंजन	-3148
ak	-3149
▁ईसाई	-3150
▁भ्र	-3151
▁प्रशासनिक	-3152
▁छह	-3153
ंगी	-3154
▁शांति	-3155
धारा	-3156
▁गोर	-3157
▁चुन	-3158
▁अम्ल	-3159
▁इसने	-3160
▁प्रो	-3161
▁मौसम	-3162
▁गुप्त	-3163
▁कुर	-3164
▁जल्	-3165
ाउन	-3166
▁O	-3167
19	-3168
▁मित्र	-3169
▁भेज	-3170
थे	-3171
.9	-3172
▁शुद्ध	-3173
▁विद्रोह	-3174
▁विश्लेषण	-3175
▁हस्त	-3176
▁इट	-3177
▁प्रायः	-3178
44	-3179
ूहिक	-3180
▁ओल	-3181
ाब	-3182
पित	-3183
पत्र	-3184
▁तार	-3185
▁बजाय	-3186
▁–	-3187
▁परिणामस्वरूप	-3188
▁पत्थर	-3189
▁189	-3190
थान	-3191
्शन	-3192
▁दास	-3193
▁तेज	-3194
▁मंग	-3195
▁हरा	-3196
▁लिखे	-3197
▁टेस्ट	-3198
▁अगले	-3199
▁सामूहिक	-3200
अर	-3201
जीव	-3202
▁पद्म	-3203
▁गढ़वाल	-3204
▁द्वार	-3205
▁माह	-3206
▁हमेशा	-3207
▁कना	-3208
▁इतना	-3209
▁विचारों	-3210
▁भेद	-3211
शाह	-3212
णियों	-3213
5°	-3214
िरी	-3215
▁लखनऊ	-3216
राय	-3217
▁अंतरिक्ष	-3218
ेलन	-3219
▁सोव	-3220
ढ़ी	-3221
▁जीन	-3222
्रेड	-3223
▁फैला	-3224
▁आँ	-3225
▁रण	-3226
वां	-3227
▁हल	-3228
▁जुड़ा	-3229
▁सॉफ्ट	-3230
फ्त	-3231
▁तकनीक	-3232
▁चिकित्स	-3233
्रेट	-3234
▁रिली	-3235
बन्ध	-3236
ेंद्र	-3237
▁गहरा	-3238
ल्प	-3239
वुड	-3240
▁चुकी	-3241
पूर्वक	-3242
जु	-3243
मीर	-3244
▁प्रे	-3245
▁सलाह	-3246
um	-3247
▁ज्व	-3248
वेल	-3249
▁मछ	-3250
▁हान	-3251
▁परीक्षा	-3252
ंबी	-3253
▁सुरक्षित	-3254
▁चाहते	-3255
▁संपर्क	-3256
▁प्रशिक्षण	-3257
▁व्यक्तिगत	-3258
▁प्रतिनिधित्व	-3259
▁साब	-3260
लिंग	-3261
▁शारी	-3262
▁टा	-3263
धों	-3264
▁इलाहाबाद	-3265
क्षक	-3266
▁गृह	-3267
ग्राम	-3268
▁सफ	-3269
▁विवरण	-3270
्यास	-3271
▁उम्म	-3272
▁g	-3273
भूमि	-3274
▁आये	-3275
गाह	-3276
▁The	-3277
कला	-3278
ताप	-3279
▁गोप	-3280
ंत्रिक	-3281
▁पश्चात्	-3282
र्की	-3283
▁काली	-3284
▁शाय	-3285
▁इकाई	-3286
▁ग्रहण	-3287
▁छूट	-3288
एक	-3289
त्मा	-3290
▁काउ	-3291
▁लेता	-3292
क्साइड	-3293
भूत	-3294
▁जटिल	-3295
▁महाराष्ट्र	-3296
ित्त	-3297
▁मस्	-3298
▁विषयों	-3299
▁अभिनेता	-3300
जाति	-3301
म्बेडकर	-3302
▁In	-3303
▁नवम्बर	-3304
▁वृक्ष	-3305
▁वही	-3306
▁पहाड़ी	-3307
▁मुख्यतः	-3308
▁सोवियत	-3309
▁स्वर	-3310
ेटा	-3311
▁प्रारम्भ	-3312
क्य	-3313
▁आकाश	-3314
▁विरुद्ध	-3315
▁खी	-3316
▁अभि	-3317
▁बिज	-3318
कृष्ण	-3319
सेना	-3320
▁2013	-3321
▁विद्या	-3322
त्प	-3323
▁चढ़	-3324
▁पटना	-3325
▁अपराध	-3326
▁{\	-3327
▁1990	-3328
▁उन्न	-3329
▁फ़्र	-3330
13	-3331
▁प्रशासन	-3332
▁खरीद	-3333
ायी	-3334
ोबाइल	-3335
▁रोमन	-3336
खिम	-3337
▁मुझ	-3338
▁आयर	-3339
▁संरक्षण	-3340
▁वित्तीय	-3341
▁गाँधी	-3342
▁दृष्टिकोण	-3343
▁दर्शाता	-3344
हरे	-3345
शाली	-3346
▁दिये	-3347
▁स्थिर	-3348
▁रचित	-3349
▁तृ	-3350
▁सिक्	-3351
▁जैव	-3352
ासन	-3353
▁गतिविध	-3354
वाब	-3355
▁महासागर	-3356
बॉल	-3357
ल्फ	-3358
▁पशु	-3359
नाइटेड	-3360
▁1,	-3361
▁मशीन	-3362
लिक	-3363
▁दार्	-3364
.7	-3365
ज्ज	-3366
यम	-3367
स्वी	-3368
15	-3369
▁आदर्श	-3370
▁शारीरिक	-3371
▁→	-3372
्रोजन	-3373
काता	-3374
▁अर्थव्यवस्था	-3375
▁जांच	-3376
▁re	-3377
▁दबाव	-3378
ूं	-3379
चारिक	-3380
िवेश	-3381
ce	-3382
▁विद्वानों	-3383
▁क्रमश	-3384
▁संसार	-3385
शे	-3386
▁पदार्थों	-3387
▁प्रतीक	-3388
▁उनसे	-3389
▁राजवंश	-3390
▁तथ	-3391
▁प्ल	-3392
क्ल	-3393
▁सर्वोच्च	-3394
▁सीधे	-3395
▁परिप	-3396
▁एकल	-3397
▁हृद	-3398
ॉर्क	-3399
▁उपन	-3400
स्पति	-3401
▁जिम्म	-3402
▁गेंद	-3403
▁पुनर्	-3404
▁सृ	-3405
मेर	-3406
▁ग्रामी	-3407
▁सिख	-3408
▁कृत	-3409
▁सामना	-3410
ंडे	-3411
दु	-3412
ंपरिक	-3413
ंदु	-3414
▁समारोह	-3415
तार	-3416
▁चोट	-3417
मारी	-3418
▁किले	-3419
▁निवेश	-3420
▁समस्त	-3421
▁अट	-3422
▁मिस्र	-3423
लब	-3424
▁पसंद	-3425
▁जिसमे	-3426
एफ	-3427
▁तेजी	-3428
ौल	-3429
ादक	-3430
वाला	-3431
▁मांस	-3432
▁त्व	-3433
▁आन्ध्रप्रदेश	-3434
▁r	-3435
▁आचार्य	-3436
संग	-3437
▁उचित	-3438
▁ज्यादातर	-3439
सान	-3440
▁लक	-3441
▁उत्पत्ति	-3442
ांतिक	-3443
▁कब्	-3444
ीद	-3445
▁सॉफ्टवेयर	-3446
कूल	-3447
▁समर्प	-3448
og	-3449
पश्च	-3450
▁केन्द	-3451
▁185	-3452
▁बेहतर	-3453
ॉय	-3454
▁2003	-3455
27	-3456
थि	-3457
▁ग्राह	-3458
▁सिस्टम	-3459
▁सम्मेलन	-3460
▁दान	-3461
ह्न	-3462
▁जोखिम	-3463
▁इच्छा	-3464
▁हथ	-3465
▁घु	-3466
▁जीता	-3467
yle	-3468
▁आरोप	-3469
ड़िया	-3470
दराबाद	-3471
▁गणराज्य	-3472
▁प्ला	-3473
▁तत्कालीन	-3474
▁मिलने	-3475
▁बैंड	-3476
▁सिने	-3477
▁घरेल	-3478
र्दू	-3479
▁लड़ाई	-3480
म्परा	-3481
▁खत	-3482
रीब	-3483
ंदा	-3484
▁फिल	-3485
▁आंत	-3486
▁इंजीनियर	-3487
▁नियमित	-3488
▁संसा	-3489
▁पारंपरिक	-3490
लेट	-3491
▁भौतिकी	-3492
▁यंत्र	-3493
▁स्मार	-3494
▁+	-3495
▁चार्	-3496
▁देखते	-3497
▁दोष	-3498
▁कोलकाता	-3499
▁मौत	-3500
▁चलते	-3501
न्व	-3502
▁गठ	-3503
ौज	-3504
वायु	-3505
जिद	-3506
▁हस्ता	-3507
▁जमा	-3508
▁द्रव्य	-3509
डो	-3510
▁निर्माता	-3511
▁188	-3512
▁महाद्वीप	-3513
▁हमला	-3514
वैज्ञानिक	-3515
ल्ला	-3516
कर्ताओं	-3517
▁विभाजन	-3518
▁शिला	-3519
▁हैदराबाद	-3520
▁ब्राह्मण	-3521
▁चट्ट	-3522
▁दावा	-3523
▁नार	-3524
▁उपयुक्त	-3525
▁माने	-3526
एच	-3527
▁केरल	-3528
▁2002	-3529
र्घ	-3530
ोधन	-3531
▁संचार	-3532
▁एकमात्र	-3533
शय	-3534
▁सजा	-3535
▁सत्र	-3536
▁लंबे	-3537
▁लगाने	-3538
▁पाने	-3539
▁सभ्यता	-3540
दूर	-3541
नान	-3542
▁is	-3543
▁विज्ञा	-3544
▁गुजरात	-3545
ँकि	-3546
▁विख्यात	-3547
▁वर	-3548
▁मां	-3549
ण्ट	-3550
▁अख	-3551
▁बोर्ड	-3552
▁रखता	-3553
▁जीवित	-3554
▁शास्त	-3555
▁प्रसाद	-3556
▁खाद्य	-3557
▁तप	-3558
▁अर्थात	-3559
▁तिब्ब	-3560
▁जाल	-3561
▁मानना	-3562
माला	-3563
▁स्वर्ण	-3564
मै	-3565
▁उपग्रह	-3566
वरों	-3567
▁लेखन	-3568
▁एफ	-3569
▁जेल	-3570
▁हटा	-3571
▁नाइट	-3572
▁समूहों	-3573
पट	-3574
▁लागत	-3575
ियु	-3576
▁प्रेरित	-3577
▁सम्बंधित	-3578
णिज	-3579
तया	-3580
▁काट	-3581
▁समुद्री	-3582
▁मस्जिद	-3583
▁उल	-3584
▁दिखाया	-3585
भाषित	-3586
▁इमारत	-3587
अप	-3588
▁2015	-3589
▁ग्रामीण	-3590
▁प्रोग्राम	-3591
▁केंद	-3592
dis	-3593
▁आगरा	-3594
▁मीडिया	-3595
▁81	-3596
स्तिष्क	-3597
युद्ध	-3598
▁चुना	-3599
▁विलय	-3600
ow	-3601
ामा	-3602
▁प्लेट	-3603
▁लंबी	-3604
▁अनुया	-3605
▁रखी	-3606
▁मंगल	-3607
▁मैक	-3608
शिप	-3609
वेदन	-3610
▁मेट्रो	-3611
▁ढंग	-3612
▁परम्परा	-3613
▁बहा	-3614
▁प्रत्यक्ष	-3615
गुप्त	-3616
▁पुरानी	-3617
बर्ट	-3618
▁छात्र	-3619
▁उम्मीद	-3620
इल	-3621
▁वर्णित	-3622
▁पेर	-3623
▁हल्	-3624
▁शिकार	-3625
ग्न	-3626
▁शायद	-3627
▁स्पेन	-3628
यत	-3629
▁समझा	-3630
▁माइक्र	-3631
ch	-3632
फ्	-3633
▁संक्रमण	-3634
▁बंध	-3635
▁केन्द्रीय	-3636
em	-3637
▁घटनाओं	-3638
▁सुख	-3639
णिज्य	-3640
▁कहलाता	-3641
▁परिवर्तित	-3642
▁टीवी	-3643
▁सन्दर्भ	-3644
िंगटन	-3645
लाइन	-3646
▁वीडियो	-3647
वली	-3648
▁58	-3649
उट	-3650
▁J	-3651
ष्कार	-3652
ियार	-3653
▁लघु	-3654
ात्	-3655
िल्प	-3656
▁पत	-3657
ध्या	-3658
▁सुपर	-3659
▁मूर्ति	-3660
▁संचालन	-3661
▁उपभ	-3662
▁अड्डा	-3663
▁तीसरे	-3664
कारात्मक	-3665
▁सर्वे	-3666
▁31	-3667
हीन	-3668
▁चयन	-3669
▁राशि	-3670
▁सप्ताह	-3671
हल	-3672
िरण	-3673
▁भेजा	-3674
▁सिटी	-3675
▁आम्बेडकर	-3676
ेंच	-3677
▁हजार	-3678
रीय	-3679
▁आंक	-3680
▁विवे	-3681
▁तकनीकी	-3682
ोधित	-3683
▁कुश	-3684
▁प्रवाह	-3685
▁घरेलू	-3686
▁सितंबर	-3687
परी	-3688
हवीं	-3689
▁वालों	-3690
▁संप्र	-3691
style	-3692
▁पुराना	-3693
▁सर्वप्र	-3694
▁संग्रहालय	-3695
कोट	-3696
▁घन	-3697
▁चतु	-3698
▁फरवरी	-3699
▁प्रगति	-3700
▁मेर	-3701
▁संभवत	-3702
दू	-3703
म्बी	-3704
्याग	-3705
▁60	-3706
ोत्साह	-3707
▁चर्चा	-3708
▁परिभाषा	-3709
दर्शन	-3710
play	-3711
▁उदय	-3712
इयों	-3713
▁परिसर	-3714
▁चरित्र	-3715
▁80	-3716
▁कहना	-3717
▁उर्दू	-3718
▁प्रभावी	-3719
▁सम्पूर्ण	-3720
▁57	-3721
▁कार्बन	-3722
िलों	-3723
नैतिक	-3724
ासी	-3725
▁नियंत्रित	-3726
▁हृदय	-3727
▁कनाडा	-3728
िकाओं	-3729
संख्य	-3730
▁पत्त	-3731
▁कैथ	-3732
▁सौर	-3733
▁पर्यटन	-3734
ोज़	-3735
▁आख	-3736
ंदी	-3737
रता	-3738
हारी	-3739
▁खेलों	-3740
▁अभिव	-3741
▁साँचा	-3742
▁ब्लैक	-3743
▁बाहरी	-3744
▁सेवाओं	-3745
▁वाणिज्य	-3746
स्पर	-3747
60	-3748
▁चलने	-3749
▁हालाँकि	-3750
यक	-3751
▁मोबाइल	-3752
्षिक	-3753
▁संधि	-3754
णिक	-3755
▁ऑन	-3756
पचारिक	-3757
ंव	-3758
▁अमरीका	-3759
चारी	-3760
▁शेयर	-3761
▁देवता	-3762
▁कोशिकाओं	-3763
▁मात	-3764
▁औष	-3765
▁किर	-3766
▁भक्त	-3767
▁कठिन	-3768
्यूट	-3769
रोक्त	-3770
▁मतलब	-3771
▁वेस्ट	-3772
▁उपरोक्त	-3773
क्क	-3774
स्त्र	-3775
▁कराया	-3776
सायिक	-3777
▁अरबी	-3778
▁फे	-3779
म्मू	-3780
▁त्रि	-3781
▁विलियम	-3782
पुरा	-3783
▁वैदिक	-3784
▁जलवायु	-3785
▁कहान	-3786
▁मानकर	-3787
th	-3788
▁महाभारत	-3789
▁ऊंचाई	-3790
▁प्रतिमा	-3791
लोक	-3792
▁रोज	-3793
है	-3794
▁खूब	-3795
दाबाद	-3796
▁अंग्रेजों	-3797
ंता	-3798
पूर्ति	-3799
गान	-3800
▁उपाधि	-3801
ाये	-3802
▁अनुकूल	-3803
▁तरंग	-3804
ौन	-3805
▁पैमाने	-3806
▁क्षेत्रीय	-3807
▁नवीन	-3808
▁संपूर्ण	-3809
दो	-3810
▁आन्द	-3811
▁प्रि	-3812
▁कर्ना	-3813
▁for	-3814
▁नही	-3815
▁तत्वों	-3816
शनिक	-3817
▁नये	-3818
▁2016	-3819
▁गूगल	-3820
▁पुण	-3821
▁सिनेमा	-3822
ाराण	-3823
▁आतंक	-3824
▁पौधों	-3825
िमा	-3826
▁न्यूय	-3827
▁छि	-3828
display	-3829
▁कारणों	-3830
▁आर्य	-3831
▁जम्मू	-3832
▁मनोर	-3833
▁छोड़कर	-3834
▁हट	-3835
▁उनको	-3836
displaystyle	-3837
गढ	-3838
ठार	-3839
▁वार्षिक	-3840
▁1980	-3841
ड़ने	-3842
दपुर	-3843
▁सोल	-3844
यू	-3845
▁स्थायी	-3846
स्म	-3847
▁केंद्रीय	-3848
श्विक	-3849
िशाली	-3850
कृष्ट	-3851
▁पोर्ट	-3852
ल्य	-3853
▁35	-3854
▁कानपुर	-3855
ोत्तर	-3856
▁आनंद	-3857
▁तुर्की	-3858
क्षर	-3859
ैव	-3860
तियाँ	-3861
▁हमें	-3862
पों	-3863
▁रूसी	-3864
▁उपस्थिति	-3865
▁अनुप्र	-3866
ष्टा	-3867
▁आवि	-3868
▁मस्तिष्क	-3869
▁परिभाषित	-3870
▁महत्त्वपूर्ण	-3871
▁कार्ड	-3872
▁*	-3873
इया	-3874
▁ज़िले	-3875
▁स्टार	-3876
▁अना	-3877
▁जूल	-3878
ाराणसी	-3879
▁विक्र	-3880
▁प्री	-3881
▁गौर	-3882
दारी	-3883
▁डेटा	-3884
▁पोल	-3885
▁अच्छे	-3886
▁कण	-3887
▁बनाये	-3888
ra	-3889
करी	-3890
तन्त्र	-3891
▁सितम्बर	-3892
पुरी	-3893
▁राजनैतिक	-3894
ोनी	-3895
▁एल्बम	-3896
▁पाठ्य	-3897
▁ताल	-3898
▁कैलेंडर	-3899
▁काला	-3900
▁नदियों	-3901
▁ध्वनि	-3902
▁दार्शनिक	-3903
▁बढ	-3904
▁रन	-3905
▁शाही	-3906
।।	-3907
▁जीवों	-3908
▁प्रोत्साह	-3909
▁अनिवार	-3910
▁सोम	-3911
क्का	-3912
ूक	-3913
न्दु	-3914
▁78.0	-3915
▁ग्रंथों	-3916
दल	-3917
▁फैस	-3918
धारणा	-3919
▁जनरल	-3920
▁आत्मा	-3921
▁हिमालय	-3922
▁पार्	-3923
▁निगम	-3924
ांकन	-3925
▁कक्षा	-3926
▁कल्पना	-3927
िस्प	-3928
▁लाइन	-3929
▁गतिविधियों	-3930
त्तीस	-3931
▁पाद	-3932
हान	-3933
▁अस्थ	-3934
ेक्ट	-3935
िश्चित	-3936
▁अधिकारियों	-3937
▁कैसे	-3938
▁आयोग	-3939
▁व्	-3940
▁नील	-3941
▁किताब	-3942
▁डाला	-3943
▁समर्पित	-3944
पेक्ष	-3945
▁)	-3946
▁वॉ	-3947
▁भुगत	-3948
▁समस्याओं	-3949
▁ग्रीन	-3950
▁उद्यान	-3951
▁शक्तिशाली	-3952
धिकारी	-3953
▁नॉ	-3954
▁कबी	-3955
▁187	-3956
▁साधन	-3957
▁ज़्या	-3958
ायत	-3959
▁ध्रु	-3960
▁खेती	-3961
क्व	-3962
▁पति	-3963
▁क्यू	-3964
चु	-3965
िटल	-3966
▁मसी	-3967
▁बढ़ती	-3968
▁कंपनियों	-3969
ेंसी	-3970
पल	-3971
▁लेन	-3972
▁कर्नाटक	-3973
▁जयपुर	-3974
▁व्यावसायिक	-3975
▁रज	-3976
▁सर्वप्रथम	-3977
क्शन	-3978
▁मानसिक	-3979
बह	-3980
ंगे	-3981
्यूर	-3982
▁अल्म	-3983
▁ईरान	-3984
▁ar	-3985
▁चैनल	-3986
▁दिवस	-3987
िकता	-3988
्राव	-3989
▁रोड	-3990
36	-3991
रत	-3992
25	-3993
▁नेहर	-3994
▁अंततः	-3995
}}	-3996
▁काशी	-3997
▁हित	-3998
▁an	-3999
▁उठा	-4000
▁घूम	-4001
▁विशेषज्ञ	-4002
थन	-4003
ब्ल्यू	-4004
सेन	-4005
▁तुर	-4006
38	-4007
▁राइ	-4008
▁क्षति	-4009
▁पात्र	-4010
▁बीमारी	-4011
िकीय	-4012
▁करेगा	-4013
▁कलाकार	-4014
▁दूध	-4015
▁अकबर	-4016
▁जिनकी	-4017
▁लकड़ी	-4018
ंक्शन	-4019
▁अवधारणा	-4020
▁तारा	-4021
▁रोगी	-4022
विश	-4023
▁नियमों	-4024
ठे	-4025
▁मिलाकर	-4026
ोला	-4027
▁आसानी	-4028
▁प्रथा	-4029
ers	-4030
▁पृथ्वीराज	-4031
▁पॉ	-4032
▁पड़ती	-4033
ांतर	-4034
गोलिक	-4035
▁जोर	-4036
▁अज	-4037
िक्र	-4038
हे	-4039
▁प्राप्ति	-4040
▁दर्ज	-4041
PM	-4042
▁मंडल	-4043
▁बिक्री	-4044
▁प्रताप	-4045
कोश	-4046
▁लिंग	-4047
▁वैश्विक	-4048
▁जेम्स	-4049
धीश	-4050
लाम	-4051
त्रि	-4052
▁पॉल	-4053
▁त्याग	-4054
▁जाकर	-4055
▁प्रतीत	-4056
शु	-4057
▁विकल्प	-4058
▁आपको	-4059
▁शृंखला	-4060
▁सूर	-4061
▁मुक	-4062
▁गवर्	-4063
▁27°	-4064
▁कोय	-4065
▁प्रश्न	-4066
▁कित	-4067
▁बिजली	-4068
खर	-4069
▁छत्तीस	-4070
बु	-4071
▁राह	-4072
▁एव	-4073
▁तृतीय	-4074
▁संदेश	-4075
भुत	-4076
▁सुझ	-4077
▁इटली	-4078
▁शुक्र	-4079
▁समृ	-4080
▁बनता	-4081
▁एकत्र	-4082
▁इंद	-4083
लाब	-4084
▁दिसंबर	-4085
▁क्ला	-4086
▁फलस्वरूप	-4087
ct	-4088
महा	-4089
गरीय	-4090
▁नेप	-4091
▁आन्दोलन	-4092
▁अनिवार्य	-4093
est	-4094
काब	-4095
▁धारण	-4096
▁अन्दर	-4097
▁लिखित	-4098
▁लल	-4099
▁बुल	-4100
▁मुगल	-4101
▁तय	-4102
▁प्रसारण	-4103
▁उपयोगी	-4104
▁आकर	-4105
▁देकर	-4106
▁संकल	-4107
▁अस्पताल	-4108
▁आंतरिक	-4109
सिंग	-4110
ौती	-4111
▁बिंदु	-4112
▁मजबूत	-4113
▁प्रतिरोध	-4114
▁ठोस	-4115
▁मसीह	-4116
▁जॉर्ज	-4117
आत	-4118
▁शीर्षक	-4119
ैश	-4120
▁जमीन	-4121
वीर	-4122
▁भौगोलिक	-4123
▁ज़र	-4124
▁सीता	-4125
ॉनिक	-4126
▁अभिव्य	-4127
▁लाया	-4128
▁गुफा	-4129
▁संपत्ति	-4130
▁पुरुषों	-4131
सूस	-4132
▁साबित	-4133
▁भुगतान	-4134
दृ	-4135
▁ऊँचाई	-4136
▁अपेक्षाकृत	-4137
हिता	-4138
ांतरित	-4139
▁वाराणसी	-4140
▁व्यास	-4141
▁मनाया	-4142
डर	-4143
▁1999	-4144
क्सीजन	-4145
▁प्यार	-4146
▁शेर	-4147
▁तीसरी	-4148
▁राजमार्ग	-4149
▁सुना	-4150
ादाबाद	-4151
▁बसा	-4152
राई	-4153
▁उड़ान	-4154
▁मानी	-4155
▁सिंध	-4156
▁जातियों	-4157
od	-4158
मुखी	-4159
▁यूनाइटेड	-4160
▁कक्ष	-4161
▁टर्म	-4162
ोक्ता	-4163
▁निकाले	-4164
▁मुरादाबाद	-4165
स्तान	-4166
▁नेशनल	-4167
▁दाय	-4168
▁तीनों	-4169
▁परिवहन	-4170
▁नगला	-4171
▁चूंकि	-4172
▁श्रद्ध	-4173
ेह	-4174
▁अनुपात	-4175
op	-4176
वत्ता	-4177
ly	-4178
▁छात्रों	-4179
▁लंबाई	-4180
▁नारायण	-4181
her	-4182
▁रिया	-4183
▁सैनिकों	-4184
▁प्रतिप	-4185
्याण	-4186
ैंक	-4187
मो	-4188
फ़र्ड	-4189
▁मराठी	-4190
▁तभी	-4191
ादित	-4192
▁बनाते	-4193
▁मिश्रण	-4194
▁बंदर	-4195
12	-4196
रेली	-4197
▁महाम	-4198
▁पैर	-4199
▁धर	-4200
▁उपकरणों	-4201
िपी	-4202
▁थो	-4203
▁यहीं	-4204
▁साहित्यिक	-4205
तीत	-4206
▁खनि	-4207
▁आकर्षित	-4208
▁मंज	-4209
▁1947	-4210
▁खगोल	-4211
चरण	-4212
▁रखना	-4213
▁इतनी	-4214
▁ऋण	-4215
ंडित	-4216
▁मैन	-4217
ियुग	-4218
िस्तानी	-4219
तरी	-4220
▁घाट	-4221
▁अफ़्री	-4222
▁स्नातक	-4223
देशक	-4224
▁अय	-4225
▁कोट	-4226
ण्डर	-4227
ानुसार	-4228
▁अभाव	-4229
▁अग्	-4230
▁शिख	-4231
▁1960	-4232
▁एप	-4233
▁अके	-4234
▁मक	-4235
घ्र	-4236
▁निभाई	-4237
▁राजकुम	-4238
व्या	-4239
िवर्स	-4240
▁विरोधी	-4241
वती	-4242
▁टेल	-4243
▁बाज़	-4244
▁जरूरत	-4245
▁गुणों	-4246
▁जौ	-4247
▁रूपों	-4248
▁राजाओं	-4249
▁k	-4250
▁एक्सप	-4251
▁निरंतर	-4252
▁अशोक	-4253
▁पहुंचती	-4254
▁टेलीवि	-4255
नेस	-4256
▁ऊपरी	-4257
▁गिरा	-4258
▁जंक्शन	-4259
▁लोह	-4260
▁विद्वान	-4261
र्जन	-4262
▁यूनानी	-4263
▁अर्ध	-4264
▁गोरख	-4265
▁काफ़ी	-4266
▁मंत्रालय	-4267
▁शर्मा	-4268
▁छत्तीसगढ़	-4269
वक	-4270
▁बदलाव	-4271
ोंग	-4272
छा	-4273
ोलिक	-4274
24	-4275
▁सांस	-4276
रीज	-4277
▁आनु	-4278
वर्ड	-4279
▁विधायक	-4280
▁विज्ञापन	-4281
दुर	-4282
विधि	-4283
▁निच	-4284
▁v	-4285
बान	-4286
विड	-4287
▁स्ट्र	-4288
वंबर	-4289
▁टूर्	-4290
▁प्रक्षेप	-4291
▁करवाया	-4292
भि	-4293
यह	-4294
▁1970	-4295
मपुर	-4296
लाया	-4297
▁जानी	-4298
▁द्रव	-4299
▁गर्भ	-4300
▁on	-4301
▁माप	-4302
▁त्वचा	-4303
▁नैतिक	-4304
▁बेच	-4305
▁हरिया	-4306
▁बुद्धि	-4307
▁मस	-4308
▁चली	-4309
▁दैनिक	-4310
▁नेहरू	-4311
▁सर्वेक्षण	-4312
▁टुक	-4313
▁अधिकतम	-4314
▁मथ	-4315
॰मी	-4316
्मा	-4317
▁70	-4318
▁हेन	-4319
▁राजप	-4320
▁ब्रह्मा	-4321
▁खाने	-4322
av	-4323
भेद	-4324
▁दीवार	-4325
▁गेम	-4326
▁कोरिया	-4327
▁इंजीनियरिंग	-4328
नामेंट	-4329
▁वर्गीकरण	-4330
▁गुणवत्ता	-4331
▁गों	-4332
▁कठोर	-4333
▁चलती	-4334
▁पेड़	-4335
▁अश्व	-4336
▁सदा	-4337
▁लेना	-4338
▁शंकर	-4339
िणी	-4340
▁परिस्थितियों	-4341
लेस	-4342
▁खेला	-4343
न्त्री	-4344
▁वायुम	-4345
▁सामान्यतः	-4346
नाश	-4347
▁किंगडम	-4348
▁चिह्न	-4349
▁कलियुग	-4350
षद्	-4351
ंत्रिकी	-4352
▁सोन	-4353
▁भाषाएँ	-4354
िस्क	-4355
धीरे	-4356
▁निर्देशक	-4357
ंशिक	-4358
▁नवंबर	-4359
▁टूर्नामेंट	-4360
▁हाई	-4361
िप्त	-4362
▁पहाड़	-4363
श्क	-4364
सै	-4365
▁अब्द	-4366
ab	-4367
▁सेल	-4368
▁काले	-4369
▁लाह	-4370
उंड	-4371
▁फु	-4372
80	-4373
जल	-4374
▁वें	-4375
▁विज	-4376
▁होंगे	-4377
▁हिल	-4378
▁सौंप	-4379
बो	-4380
▁बनाकर	-4381
▁कले	-4382
▁शिश	-4383
▁साहित्यकार	-4384
▁पड़े	-4385
▁पारित	-4386
ड़ित	-4387
निर्माण	-4388
▁हद	-4389
▁निवासी	-4390
▁इंडियन	-4391
▁1998	-4392
▁बनाता	-4393
शाही	-4394
▁बचपन	-4395
ॉस	-4396
झा	-4397
र्ती	-4398
ंकन	-4399
बेर	-4400
▁स्टेट	-4401
▁सुन्दर	-4402
16	-4403
गां	-4404
ेसर	-4405
▁विस्फ	-4406
▁न्यूयॉर्क	-4407
▁वैसे	-4408
33	-4409
िप्प	-4410
▁पराज	-4411
▁समीप	-4412
▁समानता	-4413
▁अर्थशास्त्र	-4414
▁भोज	-4415
▁संगम	-4416
युग	-4417
▁सोच	-4418
▁यानि	-4419
▁हाथों	-4420
▁इंच	-4421
▁बाय	-4422
मंडल	-4423
▁रहस्य	-4424
▁मंच	-4425
▁रिलीज़	-4426
शास्त	-4427
॰मी॰	-4428
▁वान	-4429
--	-4430
ार्थी	-4431
काव्य	-4432
▁स्त्री	-4433
लंका	-4434
▁नुक	-4435
▁दर्द	-4436
▁पट्टी	-4437
▁महाराजा	-4438
▁be	-4439
▁टर्मिन	-4440
17	-4441
▁लिम	-4442
▁औपचारिक	-4443
▁सामान	-4444
खों	-4445
ri	-4446
टिन	-4447
▁मुसलमानों	-4448
▁बृह	-4449
▁वितरण	-4450
जू	-4451
▁लोकसभा	-4452
▁फाइन	-4453
▁स्मृति	-4454
▁रखे	-4455
र्तग	-4456
ल्ली	-4457
▁सिद्धांतों	-4458
▁;	-4459
▁हाउस	-4460
ांसीसी	-4461
▁हाइ	-4462
▁रोकने	-4463
▁संस्थापक	-4464
दिन	-4465
▁इम	-4466
▁लाने	-4467
समूह	-4468
▁बहुम	-4469
▁वर्ल्ड	-4470
रांत	-4471
▁प्रतिभा	-4472
▁अध्याय	-4473
▁चुने	-4474
▁अभ्यास	-4475
जो	-4476
▁अमर	-4477
▁पदक	-4478
जै	-4479
▁उत्कृष्ट	-4480
▁1950	-4481
▁गुजर	-4482
▁प्रजातियों	-4483
▁वार्	-4484
45	-4485
▁उत्पादों	-4486
▁अवशेष	-4487
▁अभिनेत्री	-4488
▁कदम	-4489
जिक	-4490
▁बाकी	-4491
▁शीत	-4492
साद	-4493
▁यात्री	-4494
▁उच्चारण	-4495
49	-4496
▁90	-4497
लीवुड	-4498
्रीट	-4499
▁उपाय	-4500
ोहन	-4501
िकाला	-4502
र्वेद	-4503
▁किरण	-4504
▁खाड़ी	-4505
▁जूलियन	-4506
▁विस्फोट	-4507
▁संस्कार	-4508
▁पर्	-4509
▁अधि	-4510
▁मातृ	-4511
▁छूटती	-4512
▁अक्षर	-4513
▁श्रीलंका	-4514
18	-4515
▁बेटे	-4516
▁हुये	-4517
▁कम्पनी	-4518
▁पुर्तग	-4519
टो	-4520
▁2,	-4521
▁कैर	-4522
▁भीम	-4523
▁फ़ार	-4524
▁प्रोफ	-4525
▁मंगोल	-4526
▁पौधे	-4527
▁स्वाम	-4528
सीय	-4529
▁रिश	-4530
सिड	-4531
▁स्टी	-4532
▁जोड़ा	-4533
ुति	-4534
▁मिशन	-4535
▁फ़रवरी	-4536
▁जुड़	-4537
▁पल	-4538
▁बढ़ावा	-4539
▁भक्ति	-4540
▁भागी	-4541
▁मुकाब	-4542
▁आहार	-4543
्रीम	-4544
▁भूक	-4545
▁यज्ञ	-4546
उथ	-4547
▁2017	-4548
▁न्यायाधीश	-4549
▁बढ़ने	-4550
▁प्रणाल	-4551
▁नज	-4552
▁शिखर	-4553
▁शीघ्र	-4554
oc	-4555
▁आपूर्ति	-4556
▁जहाज	-4557
▁कानूनी	-4558
▁लिखने	-4559
▁अमृत	-4560
स्को	-4561
सूत्र	-4562
▁फर	-4563
▁डिज़	-4564
▁हस्ताक्षर	-4565
▁शासकों	-4566
▁लगती	-4567
▁वय	-4568
▁मुझे	-4569
ंचल	-4570
▁फीट	-4571
▁चन्द	-4572
चारियों	-4573
▁ईस	-4574
▁अल्मोड़ा	-4575
▁बत	-4576
▁व्यक्तित्व	-4577
AM	-4578
कै	-4579
वाहिक	-4580
▁विक्रमी	-4581
▁विजे	-4582
▁समाधान	-4583
स्कर	-4584
ोग्रा	-4585
▁हमले	-4586
▁फुटबॉल	-4587
▁महसूस	-4588
▁विविधता	-4589
▁45	-4590
▁चाहता	-4591
जनन	-4592
▁चार्ल्स	-4593
िच	-4594
ष्‍	-4595
▁समीक्षा	-4596
▁प्रतिनिधि	-4597
▁नुकसान	-4598
▁परा	-4599
▁तीसरा	-4600
▁निकाला	-4601
▁सेट	-4602
▁32	-4603
▁मग	-4604
ांसी	-4605
▁सारी	-4606
▁सल	-4607
शीलता	-4608
्यात्म	-4609
35	-4610
्ली	-4611
▁पेशे	-4612
▁85°	-4613
▁कार्यक्रमों	-4614
▁रोगों	-4615
▁एंज	-4616
▁कल्याण	-4617
▁रिस	-4618
▁सचिव	-4619
ान्ति	-4620
▁पुरात	-4621
क्षी	-4622
▁होल	-4623
नन	-4624
▁देवताओं	-4625
▁अधिकारों	-4626
लाइ	-4627
कालिक	-4628
बरी	-4629
▁नयी	-4630
▁पहुंचा	-4631
▁अदाल	-4632
▁टीका	-4633
▁स्कॉटलैंड	-4634
▁मद्र	-4635
▁हिन्दु	-4636
▁इस्लामी	-4637
▁कुशल	-4638
▁हाइड्रोजन	-4639
▁इलाज	-4640
▁गाने	-4641
▁गवर्नर	-4642
▁स्मारक	-4643
▁निश	-4644
च्छेद	-4645
▁राजपूत	-4646
▁समझने	-4647
▁पुष्टि	-4648
▁प्राणी	-4649
▁अनुप	-4650
▁पुस्तकों	-4651
▁फ़िल्मों	-4652
ंपिक	-4653
▁असफल	-4654
▁मौलिक	-4655
▁पत्रकार	-4656
ाइम	-4657
▁नो	-4658
ीकृत	-4659
▁उपज	-4660
▁तथ्य	-4661
47	-4662
▁आध्यात्म	-4663
म्बई	-4664
▁खोल	-4665
▁जड़	-4666
▁प्रेस	-4667
ian	-4668
▁महात्मा	-4669
राह	-4670
▁पांड	-4671
▁बंगल	-4672
▁प्रेरणा	-4673
ov	-4674
▁निष्कर्ष	-4675
▁हॉल	-4676
▁ड्राइ	-4677
ाफ	-4678
्सों	-4679
▁कराने	-4680
बाजी	-4681
▁तला	-4682
▁मंदिरों	-4683
त्रिम	-4684
▁रास्त	-4685
शक्ति	-4686
▁व्याकरण	-4687
99	-4688
▁मेड	-4689
दाता	-4690
▁मोर	-4691
▁शराब	-4692
▁उभ	-4693
▁जापानी	-4694
▁मोटर	-4695
▁मथुरा	-4696
▁संक्ष	-4697
▁संबद्ध	-4698
ार्ट	-4699
▁186	-4700
▁पाठ्यक्रम	-4701
ुद्र	-4702
▁झु	-4703
▁मुख्यमंत्री	-4704
▁आजकल	-4705
▁पक्षी	-4706
र्जी	-4707
▁फोट	-4708
▁दीर्घ	-4709
▁ज्वाला	-4710
▁मारे	-4711
▁वाहन	-4712
▁बढ़ाने	-4713
▁यथा	-4714
▁अन्तर्राष्ट्रीय	-4715
▁आविष्कार	-4716
▁कोर	-4717
▁बोध	-4718
▁इसको	-4719
▁कायम	-4720
▁सुझाव	-4721
▁कर्मचारियों	-4722
फार	-4723
▁इस्प	-4724
तायात	-4725
ासत	-4726
▁तरल	-4727
▁हूँ	-4728
▁ऋतु	-4729
▁नैनी	-4730
▁25°	-4731
▁अह	-4732
▁गईं	-4733
ेन्द्र	-4734
▁संकट	-4735
▁व्यापारिक	-4736
ht	-4737
▁वास	-4738
▁धारणा	-4739
ॉड	-4740
क्ता	-4741
▁25.1	-4742
▁द्रव्यमान	-4743
ाजा	-4744
▁500	-4745
▁मिश्रित	-4746
▁वनस्पति	-4747
सूर	-4748
▁पंडित	-4749
▁रचनाओं	-4750
▁दशा	-4751
जीवन	-4752
▁पुणे	-4753
नात्मक	-4754
▁st	-4755
ियनशिप	-4756
▁माध	-4757
ँग	-4758
▁पीढ़ी	-4759
ांट	-4760
▁खुल	-4761
▁शैल	-4762
▁नमू	-4763
▁निधन	-4764
▁अनुप्रयोग	-4765
▁सकें	-4766
▁डर	-4767
▁कोर्ट	-4768
दीय	-4769
िटेड	-4770
▁आर्ट	-4771
ेयर	-4772
टकों	-4773
▁बीस	-4774
▁पंचाग	-4775
▁स्वतन्त्र	-4776
▁अलीगढ़	-4777
ष्मा	-4778
▁विकिरण	-4779
ine	-4780
▁करेंगे	-4781
▁संहिता	-4782
बाज	-4783
वाना	-4784
▁वेल्स	-4785
▁ट्यू	-4786
▁बेस	-4787
श्र	-4788
▁कोण	-4789
▁टैग	-4790
िज़	-4791
ांतरण	-4792
▁बदले	-4793
▁उपनि	-4794
▁मद्रास	-4795
स्थल	-4796
▁बनाना	-4797
▁मालिक	-4798
▁बाबा	-4799
▁किरदार	-4800
▁वस्त्र	-4801
▁अधारित	-4802
ap	-4803
लिन	-4804
▁स्तंभ	-4805
▁पथ	-4806
पश्चिम	-4807
▁बहन	-4808
▁लगते	-4809
▁कलेण्डर	-4810
▁कि॰मी॰	-4811
्चर	-4812
▁al	-4813
रात	-4814
▁चेत	-4815
▁यातायात	-4816
▁आल	-4817
▁अर्जुन	-4818
▁पाकिस्तानी	-4819
धानिक	-4820
▁न्यून	-4821
▁प्रोटीन	-4822
हारिक	-4823
ोना	-4824
▁शहरी	-4825
▁शिवाजी	-4826
▁संप्रदाय	-4827
▁व्र	-4828
▁श्रेष्ठ	-4829
▁इर	-4830
▁सका	-4831
▁चाहे	-4832
ith	-4833
वाँ	-4834
▁सफेद	-4835
▁गलत	-4836
ट्	-4837
▁बारह	-4838
▁वैज्ञानिकों	-4839
▁लेखकों	-4840
▁केंद्रित	-4841
▁समु	-4842
प्ट	-4843
▁तारे	-4844
▁पंजाबी	-4845
▁तिरु	-4846
▁दर्जा	-4847
▁गौतम	-4848
▁कमज	-4849
▁संगठनों	-4850
▁ऋषि	-4851
▁तथापि	-4852
▁आकर्षण	-4853
2°	-4854
▁फोन	-4855
▁निर्धारण	-4856
▁प्रयोगशाला	-4857
▁ख़ान	-4858
▁चाहिये	-4859
▁ज़्यादा	-4860
▁लिमिटेड	-4861
▁निर्वाचित	-4862
ंडों	-4863
ायण	-4864
▁भट्ट	-4865
हाई	-4866
प्रा	-4867
▁किला	-4868
▁अग्नि	-4869
▁तारों	-4870
▁कृत्रिम	-4871
▁विचारधारा	-4872
▁टूट	-4873
चंद्र	-4874
▁सीख	-4875
▁राव	-4876
▁पुस्तकाल	-4877
...	-4878
▁कमा	-4879
▁ईस्ट	-4880
▁अनुरूप	-4881
▁हरियाणा	-4882
▁धूम	-4883
िब	-4884
नीति	-4885
▁यश	-4886
▁नैनीताल	-4887
▁बू	-4888
▁सीट	-4889
▁इसलिये	-4890
घात	-4891
ub	-4892
धारी	-4893
▁स्थलों	-4894
art	-4895
▁संबंधों	-4896
ud	-4897
ोल्ट	-4898
▁इसील	-4899
लपुर	-4900
ुलन	-4901
लै	-4902
▁सेन	-4903
पान	-4904
ार्ज	-4905
▁परत	-4906
िस्पर्	-4907
▁घनत्व	-4908
▁वास्तु	-4909
मय	-4910
▁बाज़ार	-4911
▁बंदरगाह	-4912
▁देखकर	-4913
बीसी	-4914
संख्यक	-4915
▁एशियाई	-4916
▁इलेक्ट्रॉनिक	-4917
▁शुक	-4918
▁अत्या	-4919
▁उपनिवेश	-4920
▁जगत	-4921
▁हिस्सों	-4922
▁भंड	-4923
▁वस	-4924
▁एका	-4925
▁इलाकों	-4926
कत	-4927
▁ज्योतिष	-4928
पिता	-4929
▁अंब	-4930
▁खर्च	-4931
▁समीकरण	-4932
▁स्टू	-4933
▁नाभ	-4934
▁टन	-4935
▁नहर	-4936
▁77	-4937
▁किस्म	-4938
▁पशुओं	-4939
▁होटल	-4940
▁इस्पात	-4941
▁गीता	-4942
▁दस्ता	-4943
▁प्रतिस्पर्	-4944
▁मेरे	-4945
▁जला	-4946
▁इण्ड	-4947
▁फ्रेंच	-4948
लभ	-4949
▁यो	-4950
िफ	-4951
▁36	-4952
▁आयरलैंड	-4953
▁as	-4954
▁गंग	-4955
▁सश	-4956
▁शिल्प	-4957
▁प्रसारित	-4958
▁खण्ड	-4959
राणिक	-4960
शायर	-4961
▁तुरंत	-4962
घटना	-4963
▁बाइ	-4964
▁फैसला	-4965
▁सोस	-4966
▁मिथ	-4967
▁खींच	-4968
त्रियों	-4969
▁मछली	-4970
▁बंगाली	-4971
▁Ch	-4972
▁रेश	-4973
▁बुनिया	-4974
▁प्रार्थ	-4975
लर	-4976
▁जिम्मेदार	-4977
▁1.	-4978
ामान्य	-4979
ity	-4980
▁कारक	-4981
▁अंध	-4982
▁मुक्ति	-4983
गाँ	-4984
भाल	-4985
▁उद्य	-4986
09	-4987
वाहित	-4988
▁अवश्य	-4989
कथा	-4990
▁टू	-4991
▁देखी	-4992
▁देखें	-4993
▁दें	-4994
if	-4995
▁हजारों	-4996
▁निर्देशन	-4997
▁वेग	-4998
ान्तर	-4999
▁निरा	-5000
▁दीव	-5001
▁मादा	-5002
▁क्रांतिक	-5003
ेदारी	-5004
ुत्प	-5005
▁जंगल	-5006
▁प्रत्या	-5007
1′	-5008
उन	-5009
▁रिच	-5010
▁श्रेय	-5011
▁जू	-5012
वर्ग	-5013
▁नल	-5014
▁शल्य	-5015
▁मठ	-5016
ोर्स	-5017
▁नज़र	-5018
▁लेती	-5019
चिकित	-5020
▁1991	-5021
ter	-5022
जनक	-5023
▁पकड़	-5024
▁साइट	-5025
दर्शी	-5026
▁निर्देशित	-5027
यें	-5028
▁सफ़	-5029
▁गोरखपुर	-5030
ोपाल	-5031
▁किश	-5032
▁आश्रम	-5033
ेव	-5034
ासा	-5035
▁म्यू	-5036
▁समझौते	-5037
भौ	-5038
▁गुरुत	-5039
▁बाह्य	-5040
▁वक्त	-5041
▁वस्तुत	-5042
▁पौराणिक	-5043
▁कलक	-5044
▁दौरा	-5045
▁नेताओं	-5046
▁प्रार्थना	-5047
▁यथ	-5048
गंगा	-5049
▁समन्व	-5050
▁गैल	-5051
▁अपनाया	-5052
ंध्र	-5053
▁हेल	-5054
▁तनाव	-5055
▁दोस्त	-5056
सों	-5057
▁फसल	-5058
ोनिया	-5059
▁गिल	-5060
▁साहि	-5061
age	-5062
आन	-5063
ंधन	-5064
ग़ान	-5065
त्तर	-5066
क्‍	-5067
▁1996	-5068
▁खनिज	-5069
▁धरती	-5070
मती	-5071
▁क्रिस्ट	-5072
22	-5073
ून्य	-5074
ज़े	-5075
▁आद	-5076
वधान	-5077
▁तिब्बत	-5078
▁देहा	-5079
्रेन	-5080
▁प्रयत्न	-5081
ोलॉ	-5082
▁कबीर	-5083
▁कन्नौज	-5084
▁सिव	-5085
▁प्रजनन	-5086
▁टिप्प	-5087
▁मुश्क	-5088
▁चित्रण	-5089
ant	-5090
▁विंड	-5091
▁25.6	-5092
▁उच्चतम	-5093
▁चुनावों	-5094
▁नंबर	-5095
▁पर्यटक	-5096
▁जैविक	-5097
▁85.1	-5098
▁बेहद	-5099
▁बस्ती	-5100
▁इन्हीं	-5101
▁con	-5102
▁एंटी	-5103
▁ओलंपिक	-5104
▁जानवरों	-5105
▁पतन	-5106
▁सेक	-5107
▁मनुष्यों	-5108
▁उष्ण	-5109
▁समृद्ध	-5110
▁1997	-5111
▁यान	-5112
▁टाइम्स	-5113
▁लक्षणों	-5114
14	-5115
▁डिस्क	-5116
▁यूनिवर्स	-5117
▁प्रतिष्ठित	-5118
▁विद्यमान	-5119
बिल	-5120
▁नोब	-5121
क्षिक	-5122
▁श्वेत	-5123
ट्स	-5124
▁पट्ट	-5125
▁थोड़ा	-5126
▁शान	-5127
▁गोवि	-5128
▁व्यंजन	-5129
ुण	-5130
▁रहना	-5131
▁सूरज	-5132
▁विजेता	-5133
ूदी	-5134
▁अवि	-5135
▁फ्रांसीसी	-5136
▁दस्तावे	-5137
▁दोनो	-5138
▁बैठक	-5139
तेह	-5140
▁अवय	-5141
37	-5142
िएशन	-5143
▁पीड़ित	-5144
ज्	-5145
भूति	-5146
▁बेटी	-5147
▁सम्प्र	-5148
▁तू	-5149
▁ऊँचा	-5150
▁डिजिटल	-5151
▁अहमद	-5152
▁खुला	-5153
▁शत्र	-5154
▁निदेशक	-5155
त्‍	-5156
हाल	-5157
▁गोल्ड	-5158
▁25.611	-5159
▁85.144	-5160
▁इतने	-5161
▁हाथी	-5162
िप्ट	-5163
बाई	-5164
▁विफल	-5165
वासियों	-5166
▁एक्सप्रेस	-5167
▁मुताब	-5168
चालन	-5169
▁वाइ	-5170
▁तिल	-5171
ate	-5172
धीन	-5173
▁सच्च	-5174
▁आध्यात्मिक	-5175
ारक	-5176
▁संघीय	-5177
▁बालक	-5178
▁नामों	-5179
▁शुरूआत	-5180
▁संस्थाओं	-5181
▁आपने	-5182
▁कुरान	-5183
▁टेलीविजन	-5184
▁खराब	-5185
▁स्थानांतरित	-5186
▁मुताबिक	-5187
ाले	-5188
▁देखे	-5189
▁बोलने	-5190
▁भ्रम	-5191
▁यानी	-5192
▁तुम	-5193
▁तेलु	-5194
न्धी	-5195
▁टिक	-5196
▁2.	-5197
स्वती	-5198
▁संक्षिप्त	-5199
▁सुनिश्चित	-5200
▁कैथोलिक	-5201
▁संग्राम	-5202
▁जल्द	-5203
▁75	-5204
▁अद्व	-5205
▁पौड़ी	-5206
▁मध्यम	-5207
ang	-5208
▁डाइ	-5209
▁हेनरी	-5210
▁रास्ते	-5211
मेन	-5212
ोडा	-5213
मुना	-5214
▁महाविद्यालय	-5215
▁आईसीसी	-5216
28	-5217
कश	-5218
▁सहार	-5219
▁खेत	-5220
▁संब	-5221
दाई	-5222
▁लंबा	-5223
▁कारा	-5224
▁स्टेड	-5225
▁स्वामित्व	-5226
ort	-5227
▁शौ	-5228
काय	-5229
ोजी	-5230
▁पठार	-5231
▁डाटा	-5232
▁कब्जा	-5233
लीन	-5234
हूर	-5235
▁संयोजन	-5236
▁सेवन	-5237
▁लाहौर	-5238
3,	-5239
याग	-5240
▁शाहज	-5241
मिथ	-5242
▁निदान	-5243
▁प्रदेशों	-5244
कम	-5245
फ़ा	-5246
▁नोट	-5247
▁गायक	-5248
▁गोली	-5249
▁बनते	-5250
▁बल्ले	-5251
▁वाणिज्यिक	-5252
▁हरे	-5253
▁गार्ड	-5254
▁1992	-5255
▁तुर्क	-5256
▁मैचों	-5257
▁आगमन	-5258
▁राज्यपाल	-5259
▁डेविड	-5260
िट्	-5261
▁पोट	-5262
▁सुबह	-5263
ंस्ट	-5264
▁सालों	-5265
पोर्ट	-5266
▁इन्द्र	-5267
▁तिथि	-5268
ill	-5269
चंद	-5270
ोबार	-5271
▁Ind	-5272
▁ष	-5273
▁पन	-5274
".	-5275
ep	-5276
▁बम	-5277
▁काग	-5278
▁मोन	-5279
▁संभवतः	-5280
▁पर्यटकों	-5281
पो	-5282
▁जुड़ी	-5283
▁बुर	-5284
▁1930	-5285
▁बुनियादी	-5286
▁साक्षात्	-5287
साइट	-5288
बै	-5289
▁आवास	-5290
▁कड़ी	-5291
▁पहन	-5292
▁जवाब	-5293
▁गुना	-5294
▁साथी	-5295
▁लक्ष्मी	-5296
▁मगर	-5297
▁रोगियों	-5298
▁धारावाहिक	-5299
▁अभिक	-5300
▁सारा	-5301
ँति	-5302
ष्णा	-5303
▁जल्दी	-5304
ंटर	-5305
बंधन	-5306
▁चैम्प	-5307
▁अवतार	-5308
▁दरबार	-5309
▁x	-5310
▁केश	-5311
▁1995	-5312
▁परस्पर	-5313
्सी	-5314
▁चुंब	-5315
▁अग्रणी	-5316
▁परिचय	-5317
▁घे	-5318
ip	-5319
▁गहराई	-5320
▁वर्गों	-5321
्रीन	-5322
▁मुश्किल	-5323
ायल	-5324
फ्फर	-5325
▁आदमी	-5326
▁आउट	-5327
▁स्वर्ग	-5328
फोर्ड	-5329
▁पुष्प	-5330
ग़ल	-5331
पथ	-5332
खिक	-5333
ाका	-5334
▁रामायण	-5335
न्दा	-5336
▁औषध	-5337
▁श्रम	-5338
ग्रस्त	-5339
ev	-5340
बाल	-5341
▁साक्षरता	-5342
▁सम्बन्धित	-5343
▁प्रभावशाली	-5344
ंकार	-5345
नाडु	-5346
▁गद्य	-5347
▁स्तन	-5348
▁मोहम्मद	-5349
2,	-5350
▁करनी	-5351
▁जंगली	-5352
▁गरम	-5353
▁रुपये	-5354
वादियों	-5355
दों	-5356
▁छः	-5357
▁संभावित	-5358
▁प्राणियों	-5359
ूष	-5360
लेन	-5361
▁चैंप	-5362
▁जिलों	-5363
▁निर्यात	-5364
▁गिरफ्त	-5365
्टा	-5366
▁भय	-5367
▁साहिब	-5368
▁प्रारूप	-5369
▁शक्तियों	-5370
48	-5371
पालिका	-5372
▁कर्मचारी	-5373
▁भूत	-5374
▁कर्ण	-5375
▁परंपरागत	-5376
ain	-5377
गांव	-5378
53	-5379
67	-5380
वाणी	-5381
▁भूषण	-5382
ess	-5383
णुओं	-5384
▁फतेह	-5385
▁प्रोफेसर	-5386
▁बेर	-5387
▁बोस	-5388
▁सोने	-5389
▁विशेषकर	-5390
द्दा	-5391
ik	-5392
▁कीमत	-5393
▁क्रमशः	-5394
▁अदालत	-5395
▁शुक्ल	-5396
्ती	-5397
▁आवाज	-5398
▁मेरी	-5399
▁बांध	-5400
▁उद्योगों	-5401
णन	-5402
▁खिलाड़ियों	-5403
▁शर्त	-5404
▁आंशिक	-5405
▁जितना	-5406
▁त्रुट	-5407
ार्ध	-5408
.89	-5409
घाटन	-5410
▁खाना	-5411
▁राष्ट्रों	-5412
▁तोड़	-5413
▁चलाने	-5414
विल	-5415
▁स्टेडियम	-5416
▁मान्य	-5417
ard	-5418
29	-5419
▁अणु	-5420
▁अज्ञ	-5421
्ग	-5422
िसी	-5423
▁पिक	-5424
▁चलकर	-5425
▁आंध्र	-5426
▁बसे	-5427
▁सहज	-5428
▁संस्थानों	-5429
▁थॉम	-5430
क्कर	-5431
▁ब्रज	-5432
▁नौसेना	-5433
▁उत्तराधिकारी	-5434
up	-5435
▁मशहूर	-5436
▁यहूदी	-5437
▁कारख	-5438
▁रॉयल	-5439
▁पुत्री	-5440
▁प्रशंसा	-5441
▁मनोरंजन	-5442
पार	-5443
मक	-5444
गाँव	-5445
▁दाब	-5446
▁यथार्थ	-5447
▁रेग	-5448
▁एसोस	-5449
▁कम्प्यूटर	-5450
▁विरासत	-5451
▁पूंजी	-5452
ंगिक	-5453
▁चिंता	-5454
धर्म	-5455
िताब	-5456
▁पड़ी	-5457
▁by	-5458
▁आपके	-5459
मन्त्री	-5460
▁ख्या	-5461
▁सेंटर	-5462
्रल	-5463
▁1000	-5464
▁कलकत्ता	-5465
ies	-5466
▁चरम	-5467
▁वाक्य	-5468
▁लम्बी	-5469
▁प्रयासों	-5470
नल	-5471
▁तत्प	-5472
▁उन्नत	-5473
▁चिकित्सक	-5474
्रह	-5475
▁लू	-5476
▁जाँच	-5477
▁धो	-5478
▁समकालीन	-5479
▁सकारात्मक	-5480
ग्रहण	-5481
▁भूकंप	-5482
्यौ	-5483
▁with	-5484
▁आज़	-5485
▁अवार्ड	-5486
▁प्रतिद्व	-5487
▁बहती	-5488
▁कलाकारों	-5489
▁पूर	-5490
वश	-5491
▁150	-5492
नुमान	-5493
▁आशा	-5494
▁कैलि	-5495
▁बहादुर	-5496
5;	-5497
:-	-5498
बिया	-5499
▁बिस	-5500
▁दुर्घटना	-5501
6°	-5502
रिव	-5503
▁मुला	-5504
▁कॉल	-5505
▁कपूर	-5506
▁दौरे	-5507
▁आरंभिक	-5508
▁300	-5509
-0	-5510
▁बहुमत	-5511
▁बादशाह	-5512
▁टर्मिनल	-5513
ाउंड	-5514
▁अमेरिकन	-5515
▁स्टूडियो	-5516
▁बिग	-5517
▁भूमध्य	-5518
▁संशोधन	-5519
श्री	-5520
▁कप्त	-5521
▁गुरू	-5522
▁फारसी	-5523
▁शास्त्रीय	-5524
▁was	-5525
▁नाथ	-5526
▁1971	-5527
▁खुले	-5528
▁निकलने	-5529
▁शिक्षण	-5530
▁उद्ध	-5531
वाही	-5532
टिक	-5533
▁मगध	-5534
▁बर्फ	-5535
▁कठिना	-5536
शास्त्री	-5537
ast	-5538
▁रुचि	-5539
▁प्रजा	-5540
▁अत्यन्त	-5541
▁लोगो	-5542
olog	-5543
▁इलाके	-5544
▁कपड़े	-5545
सो	-5546
ैड	-5547
ैली	-5548
सूरत	-5549
▁कार्यकाल	-5550
26	-5551
खाबाद	-5552
▁दर्शकों	-5553
▁पुस्तकालय	-5554
▁नजर	-5555
ोषित	-5556
▁1994	-5557
▁चलाया	-5558
्रू	-5559
▁ईंधन	-5560
▁मलया	-5561
▁!	-5562
्रोल	-5563
▁अड्डे	-5564
ोनेशिया	-5565
▁wh	-5566
▁पाये	-5567
▁अभिले	-5568
▁उपयोगकर्ता	-5569
▁शरण	-5570
▁चंडी	-5571
▁संज्ञा	-5572
बरा	-5573
▁आपस	-5574
क्राम	-5575
▁बीमार	-5576
▁सहारा	-5577
ुकला	-5578
िस्टर	-5579
कल्पिक	-5580
▁आनुवंश	-5581
▁हुस	-5582
▁संपन्न	-5583
्रिक	-5584
▁डबल	-5585
▁ऑक्सीजन	-5586
वारी	-5587
▁चावल	-5588
▁ग्रीष्म	-5589
वाड़	-5590
ाकुर	-5591
स्टी	-5592
▁कैम	-5593
▁मौजू	-5594
▁प्रीम	-5595
वनी	-5596
रेखा	-5597
ग्व	-5598
▁कवियों	-5599
▁इसीलिए	-5600
बेथ	-5601
▁स्नान	-5602
▁आश्र	-5603
▁मौजूदा	-5604
▁निकाय	-5605
▁वृत्त	-5606
▁पराजित	-5607
ंसक	-5608
प्रति	-5609
▁कन्या	-5610
▁37	-5611
▁अंगों	-5612
▁निहित	-5613
▁कार्यरत	-5614
▁27.89	-5615
▁स्वभाव	-5616
▁भव्य	-5617
▁जिनसे	-5618
▁प्रवृत्ति	-5619
▁दरव	-5620
▁मणि	-5621
▁तरीकों	-5622
▁छाया	-5623
."	-5624
▁कौन	-5625
▁विभक्त	-5626
रक	-5627
▁संच	-5628
यिक	-5629
▁बनती	-5630
रेख	-5631
प्ति	-5632
क्रिय	-5633
▁बजा	-5634
▁तमिलनाडु	-5635
मीन	-5636
प्पा	-5637
▁180	-5638
▁1962	-5639
▁फाइनल	-5640
▁शून्य	-5641
▁नागरिकों	-5642
▁प्रोत्साहित	-5643
ंख्य	-5644
▁कमजोर	-5645
▁मानवीय	-5646
▁समझौता	-5647
▁वजन	-5648
टरी	-5649
▁टाउन	-5650
▁आयुर्वेद	-5651
"।	-5652
विन	-5653
वाड़ा	-5654
▁that	-5655
▁सरस्वती	-5656
जब	-5657
▁ध्वज	-5658
▁पाइ	-5659
▁खड़े	-5660
▁चिंत	-5661
▁शासनकाल	-5662
▁संवाद	-5663
▁3,	-5664
▁बचाने	-5665
▁पिथ	-5666
ाबाद	-5667
▁दृढ़	-5668
साधारण	-5669
▁°	-5670
▁जोकि	-5671
▁संसाधन	-5672
▁विषा	-5673
▁प्राण	-5674
▁हनुमान	-5675
▁वैकल्पिक	-5676
39	-5677
काम	-5678
वर्त	-5679
▁हमीर	-5680
▁अनुश	-5681
▁क्रिस	-5682
▁अभिव्यक्ति	-5683
▁चौड़ा	-5684
▁अनंत	-5685
ूण	-5686
▁ज़िला	-5687
ताई	-5688
▁नु	-5689
▁ठाकुर	-5690
▁प्रतिबंध	-5691
ायन	-5692
▁उपदेश	-5693
ईट	-5694
▁असर	-5695
▁एलि	-5696
▁महम	-5697
▁1989	-5698
▁बढ़ता	-5699
▁संसाध	-5700
चुर	-5701
▁शंक	-5702
▁हज़	-5703
▁भरत	-5704
▁सड़	-5705
िबंध	-5706
▁गुर्	-5707
▁स्वाद	-5708
▁पुस्तकें	-5709
लन	-5710
▁विकेट	-5711
वेन	-5712
▁प्रक्रियाओं	-5713
▁घरों	-5714
ोर्निया	-5715
कूट	-5716
ण्य	-5717
▁व्यावहारिक	-5718
ug	-5719
फ्र	-5720
ेशिया	-5721
▁मानचित्र	-5722
ोटे	-5723
▁चमक	-5724
▁सदन	-5725
▁कस्	-5726
▁1948	-5727
िपीडिया	-5728
▁बिन्दु	-5729
मोहन	-5730
▁फा	-5731
▁पाते	-5732
▁pro	-5733
▁जीतने	-5734
▁महीनों	-5735
▁अफ्रीकी	-5736
▁छोर	-5737
▁गणेश	-5738
▁डब्ल्यू	-5739
▁सुल्तानपुर	-5740
▁जनस	-5741
▁लहर	-5742
▁ट्रांस	-5743
▁सुविधाओं	-5744
ल्सन	-5745
▁रॉक	-5746
▁व्युत्प	-5747
िवे	-5748
▁खत्म	-5749
▁ब्रे	-5750
▁साक्षात्कार	-5751
▁सुभाष	-5752
▁कर्त	-5753
▁ऑनलाइन	-5754
त्तम	-5755
▁दंड	-5756
▁नक्	-5757
▁वोल्ट	-5758
महाद्वीप	-5759
▁ब्लू	-5760
▁वास्तुकला	-5761
▁नियुक्ति	-5762
ध्यक्ष	-5763
▁इंद्र	-5764
▁प्रबल	-5765
▁जवा	-5766
▁राधा	-5767
▁अवस्थित	-5768
▁बताते	-5769
ामिन	-5770
▁अधिव	-5771
▁निष्प	-5772
ाजन	-5773
न्दी	-5774
▁कहता	-5775
▁योग्यता	-5776
▁मनोविज्ञान	-5777
सेंस	-5778
गीर	-5779
▁हानि	-5780
▁लैटिन	-5781
▁वेबसाइट	-5782
स्टन	-5783
▁गेट	-5784
▁पित	-5785
▁कल्प	-5786
बाज़	-5787
▁भाष	-5788
▁इलाक़	-5789
▁25.4	-5790
▁द्वीपों	-5791
मेल	-5792
▁देर	-5793
▁जातक	-5794
▁गंध	-5795
▁मौर्य	-5796
▁यमुना	-5797
▁सिकन्दर	-5798
55	-5799
ary	-5800
▁सृष्टि	-5801
▁उत्सव	-5802
▁हिसाब	-5803
▁लोहे	-5804
कन	-5805
▁गरीब	-5806
▁स्का	-5807
▁दम	-5808
ंकिंग	-5809
▁ग्रीक	-5810
▁फ्रैंक	-5811
▁हमीरपुर	-5812
डोर	-5813
▁अफ़्रीका	-5814
▁2018	-5815
▁मुकद	-5816
▁सांख्य	-5817
हाट	-5818
▁किसान	-5819
▁प्रावधान	-5820
▁विकिपीडिया	-5821
▁इतिहासकार	-5822
देह	-5823
▁कही	-5824
▁फॉर	-5825
▁बढ़ते	-5826
▁हास्य	-5827
▁यांत्रिक	-5828
▁एथ	-5829
▁माइकल	-5830
▁पराम	-5831
▁बॉक्स	-5832
▁भाँति	-5833
▁डाक	-5834
▁संयंत्र	-5835
▁कौशल	-5836
▁मोहन	-5837
▁ग्व	-5838
▁भाषण	-5839
▁सेवाएं	-5840
▁कार्बनिक	-5841
र्नल	-5842
▁नौकरी	-5843
▁शिष्य	-5844
▁नमक	-5845
▁गौरव	-5846
वैधानिक	-5847
भिन्न	-5848
▁1956	-5849
▁घिरा	-5850
▁मैरी	-5851
्श	-5852
▁खड़ा	-5853
▁उपनिषद	-5854
▁न्यूनतम	-5855
▁संरक्षित	-5856
▁स्थितियों	-5857
▁राजन	-5858
▁चुम्ब	-5859
▁खाते	-5860
म्बे	-5861
▁भूगोल	-5862
▁विनाश	-5863
▁समाप्ति	-5864
स्तु	-5865
▁एकीकृत	-5866
▁पहुँचा	-5867
▁सटी	-5868
▁शुष्क	-5869
▁3.	-5870
▁are	-5871
ोमा	-5872
ोड़े	-5873
▁ग्लोब	-5874
▁निबंध	-5875
नाक	-5876
▁हेम	-5877
▁हमारी	-5878
▁पेशेवर	-5879
1,	-5880
▁चौथा	-5881
▁ललित	-5882
▁कैरियर	-5883
oun	-5884
दाद	-5885
ेनिस	-5886
▁दुब	-5887
▁बीमा	-5888
▁दिला	-5889
▁कार्यकारी	-5890
▁मेघ	-5891
दियों	-5892
▁कमल	-5893
▁चम्प	-5894
▁पड़ने	-5895
▁सिन्ध	-5896
▁सिंच	-5897
पूर्वी	-5898
▁पढ़ाई	-5899
किल	-5900
▁भव	-5901
िलास	-5902
▁यौन	-5903
्यांकन	-5904
▁लम्बे	-5905
ग़ानिस्तान	-5906
▁81.8	-5907
▁स्वाय	-5908
याल	-5909
▁गर्मी	-5910
▁डिज़ाइन	-5911
▁ढां	-5912
▁निवासियों	-5913
200	-5914
ग्रंथ	-5915
▁नजदी	-5916
▁रहीं	-5917
▁श्रमिक	-5918
म्मत	-5919
rom	-5920
▁नवाब	-5921
मंड	-5922
▁काउंटी	-5923
जार	-5924
▁कू	-5925
▁श्ल	-5926
▁दुर्लभ	-5927
ंकी	-5928
▁वरि	-5929
िक्रमा	-5930
द्दी	-5931
▁घटक	-5932
▁नायक	-5933
▁बनाती	-5934
▁करवा	-5935
▁शिलालेख	-5936
▁बाघ	-5937
▁पाण्ड	-5938
▁स्त्र	-5939
▁बनवाया	-5940
▁भरा	-5941
▁भोपाल	-5942
▁रास्ता	-5943
▁उदार	-5944
▁दवाओं	-5945
पुट	-5946
▁अस्था	-5947
▁कृष्णा	-5948
▁परिषद्	-5949
▁प्रणालियों	-5950
▁लोकप्रियता	-5951
ोही	-5952
▁it	-5953
▁रवि	-5954
▁1993	-5955
▁बारा	-5956
▁पोस्ट	-5957
▁विट	-5958
उंट	-5959
ंत्रित	-5960
▁देखभाल	-5961
▁or	-5962
▁बचने	-5963
▁टीमों	-5964
▁तरीका	-5965
▁शुरुआती	-5966
▁पाप	-5967
▁जाया	-5968
▁नींव	-5969
ूली	-5970
4,	-5971
▁लगने	-5972
▁परिक्रमा	-5973
▁साफ	-5974
▁आसान	-5975
▁रत्न	-5976
▁परामर्श	-5977
▁कहानियों	-5978
▁परेश	-5979
▁महादेव	-5980
▁घास	-5981
▁हिंसा	-5982
▁झार	-5983
▁कहलाते	-5984
▁तंत्रिका	-5985
▁रीति	-5986
फे	-5987
▁उत्तम	-5988
▁चिन्ह	-5989
▁पृथक	-5990
▁संतान	-5991
ोश	-5992
जीवी	-5993
▁II	-5994
▁मुम्बई	-5995
ah	-5996
▁पंजी	-5997
▁at	-5998
▁जायेगा	-5999
लास	-6000
▁प्रजाति	-6001
▁धम	-6002
ियोप	-6003
▁खड़ी	-6004
▁वर्गीकृत	-6005
▁आजादी	-6006
▁राजस्व	-6007
▁अंग्रेज	-6008
थल	-6009
▁कुं	-6010
इंग	-6011
▁कॉम	-6012
▁सैद्ध	-6013
▁अज्ञात	-6014
▁उन्हीं	-6015
▁वरिष्ठ	-6016
मूल	-6017
्ज़	-6018
▁चाँ	-6019
▁फ़ारसी	-6020
पीठ	-6021
▁St	-6022
▁चेतना	-6023
▁हथियार	-6024
र्ब	-6025
र्पण	-6026
▁अस्वी	-6027
▁अमरीकी	-6028
▁खूबसूरत	-6029
....	-6030
▁हुईं	-6031
▁पार्श्व	-6032
▁पाता	-6033
▁मुख्यत	-6034
▁पक्षियों	-6035
▁डच	-6036
▁हार्ड	-6037
▁उद्घाटन	-6038
89	-6039
ind	-6040
पूर	-6041
ंकों	-6042
▁चिप	-6043
▁ट्व	-6044
▁वार्ता	-6045
▁छवि	-6046
▁आकृति	-6047
▁सिं	-6048
▁इरा	-6049
▁दूसरों	-6050
मस	-6051
ंगाबाद	-6052
▁वाष्प	-6053
▁सहयोगी	-6054
▁}	-6055
▁फाइ	-6056
भाविक	-6057
▁दर्शा	-6058
▁सरदार	-6059
▁गठबंधन	-6060
दूत	-6061
घाट	-6062
▁उभर	-6063
▁बाई	-6064
▁बें	-6065
▁प्रस्तावित	-6066
▁बिर	-6067
▁प्रिय	-6068
▁जोड़ने	-6069
ांज	-6070
स्टिक	-6071
▁कृति	-6072
▁गहरी	-6073
रद	-6074
क्के	-6075
▁राजकुमार	-6076
ौरा	-6077
▁दाह	-6078
▁y	-6079
्ते	-6080
▁संवेदन	-6081
▁उतर	-6082
▁वोट	-6083
▁अनुमानित	-6084
▁फार्म	-6085
▁ग्राहक	-6086
▁अनुयायी	-6087
▁खुर	-6088
▁चंद	-6089
▁चुनौती	-6090
▁खेलने	-6091
▁जयसिंह	-6092
▁चक	-6093
▁अन्तिम	-6094
श्चात	-6095
▁जानते	-6096
▁संसदीय	-6097
स्की	-6098
तियां	-6099
▁शत्रु	-6100
▁न्यूजी	-6101
▁गिरावट	-6102
▁अक्षांश	-6103
▁द्वि	-6104
▁स्वच्छ	-6105
जान	-6106
ास्ट	-6107
▁कैप	-6108
रेन	-6109
मिन	-6110
▁मृ	-6111
ग्ध	-6112
▁बहर	-6113
▁गयीं	-6114
▁अंकित	-6115
▁प्रतिर	-6116
▁बदलने	-6117
▁विश्वयुद्ध	-6118
भद्र	-6119
▁अनुबंध	-6120
▁चां	-6121
▁उसको	-6122
▁नोबेल	-6123
▁उद्यम	-6124
तू	-6125
▁प्रधानमन्त्री	-6126
वर्धन	-6127
▁जातीय	-6128
▁संपादक	-6129
▁हस्तक्षेप	-6130
त्स	-6131
ोरस	-6132
▁भीड़	-6133
▁जीवाश्म	-6134
सेस	-6135
▁बिल्	-6136
ज़ों	-6137
▁फ़ॉ	-6138
▁सबूत	-6139
▁बोलते	-6140
▁गुजराती	-6141
▁जातियाँ	-6142
जरी	-6143
्रेम	-6144
र्वे	-6145
▁एकता	-6146
▁तराई	-6147
▁उत्तरदाय	-6148
▁शास्त्री	-6149
एनए	-6150
▁हड्ड	-6151
▁अकेले	-6152
▁ध्रुव	-6153
▁शुल्क	-6154
▁पायी	-6155
▁वायरस	-6156
▁सत्या	-6157
ore	-6158
▁मजरा	-6159
ार्थियों	-6160
ॉग	-6161
▁ओज	-6162
▁समेत	-6163
ect	-6164
▁वन्य	-6165
▁आकर्षक	-6166
▁सीमाओं	-6167
▁दायित्व	-6168
ber	-6169
धित	-6170
▁रम	-6171
देवी	-6172
ology	-6173
▁वैष्ण	-6174
राग	-6175
▁अकाल	-6176
▁उन्हे	-6177
▁उपमहाद्वीप	-6178
▁उपर	-6179
व्यों	-6180
▁मापन	-6181
▁जवाहर	-6182
▁प्रतिद्वंद	-6183
500	-6184
ich	-6185
र्मन	-6186
▁खाँ	-6187
▁साहब	-6188
▁हार्	-6189
ive	-6190
▁फें	-6191
▁शिशु	-6192
▁खि	-6193
▁संयोग	-6194
▁दर्शाया	-6195
।.	-6196
त्कार	-6197
हराया	-6198
▁खतरा	-6199
▁फ़िर	-6200
चीत	-6201
▁हेड	-6202
▁कणों	-6203
▁पेरिस	-6204
▁नामकरण	-6205
▁स्वायत्त	-6206
ph	-6207
मिति	-6208
▁मंड	-6209
▁संगठित	-6210
ोलॉजी	-6211
▁उत्सर्जन	-6212
▁हरि	-6213
▁रखती	-6214
▁व्रत	-6215
▁शांत	-6216
▁संसाधनों	-6217
भावना	-6218
श्चर्य	-6219
▁ग्रेट	-6220
▁नाइ	-6221
▁मेला	-6222
केल	-6223
▁पहच	-6224
कर्षण	-6225
▁चौध	-6226
▁पृथक्	-6227
▁आस्ट्र	-6228
▁सापेक्ष	-6229
-20	-6230
▁Al	-6231
▁छत	-6232
▁ग्ला	-6233
▁उपभोक्ता	-6234
our	-6235
▁1920	-6236
ान्तिक	-6237
ोपी	-6238
▁वर्मा	-6239
अन	-6240
मह	-6241
ूड	-6242
द्वार	-6243
▁78°0	-6244
▁यूनिवर्सिटी	-6245
▁मूल्यांकन	-6246
बीन	-6247
न्दन	-6248
बारी	-6249
▁आवृत्ति	-6250
▁भरी	-6251
▁पदों	-6252
▁||	-6253
▁माँग	-6254
▁पंचायत	-6255
▁रॉबर्ट	-6256
▁लाइसेंस	-6257
▁पंख	-6258
ial	-6259
कारा	-6260
कड़ों	-6261
▁किसानों	-6262
▁मेरठ	-6263
▁नीतियों	-6264
समय	-6265
▁झा	-6266
▁1965	-6267
▁निचले	-6268
▁प्रदू	-6269
▁साम्य	-6270
▁समन्वय	-6271
▁गतिविधि	-6272
▁मुज	-6273
▁ह्र	-6274
▁चौथी	-6275
▁निकलती	-6276
▁निकालने	-6277
▁सिद्धार्थ	-6278
▁हेर	-6279
ंदर्य	-6280
▁औरंग	-6281
▁मुद्र	-6282
▁ग्राहकों	-6283
ृंग	-6284
▁लें	-6285
▁तस्वी	-6286
साम	-6287
▁अहि	-6288
▁भर्ती	-6289
ोई	-6290
ोरि	-6291
▁बँ	-6292
▁जीते	-6293
▁मानस	-6294
▁अंतर्	-6295
वाहा	-6296
▁सन्त	-6297
▁धु	-6298
नायक	-6299
्याम	-6300
▁1972	-6301
▁कच्च	-6302
▁रिकार्ड	-6303
▁मलयालम	-6304
फोन	-6305
याम	-6306
क्टी	-6307
30′	-6308
▁धातुओं	-6309
▁नेपाली	-6310
▁पीठ	-6311
▁मनु	-6312
.81	-6313
▁अंचल	-6314
क्रामक	-6315
▁घोरी	-6316
▁पटेल	-6317
▁तालाब	-6318
▁जागर	-6319
▁जाएगी	-6320
▁श्लोक	-6321
▁स्क्रीन	-6322
▁1984	-6323
चन्द्र	-6324
▁रुक	-6325
▁थोड़ी	-6326
▁शैक्षिक	-6327
▁अद्	-6328
▁नागपुर	-6329
▁विधियों	-6330
▁चैम्पियनशिप	-6331
▁बोर	-6332
▁गिनी	-6333
राष्ट्र	-6334
पुरम	-6335
▁आश्चर्य	-6336
भीत	-6337
▁चीज	-6338
▁दुर्गा	-6339
70	-6340
▁मजबूर	-6341
▁मूलतः	-6342
▁अंडे	-6343
▁चंडीगढ़	-6344
▁असामान्य	-6345
ष्ठा	-6346
नाल	-6347
ोवर	-6348
▁बातचीत	-6349
▁अहमदाबाद	-6350
▁गिरफ्तार	-6351
▁मुद्द	-6352
com	-6353
▁रिव	-6354
विश्व	-6355
▁नगरों	-6356
▁ऋष	-6357
▁अवै	-6358
▁1975	-6359
▁सीरीज	-6360
ww	-6361
ण्व	-6362
▁आंख	-6363
▁प्रचलन	-6364
▁प्रसन्न	-6365
▁48	-6366
▁समुदायों	-6367
all	-6368
▁55	-6369
▁डेल	-6370
▁फैले	-6371
▁पहुंचने	-6372
▁बॉलीवुड	-6373
्द	-6374
▁होनी	-6375
ोरिया	-6376
▁ऑफिस	-6377
▁ज्वालामुखी	-6378
4′	-6379
▁छंद	-6380
▁जोध	-6381
कार्ब	-6382
▁हिमा	-6383
▁कम्यु	-6384
▁33	-6385
▁अर्जित	-6386
ical	-6387
ew	-6388
नेल	-6389
ोसी	-6390
▁ज़ि	-6391
▁संव	-6392
▁उपर्	-6393
▁पढ़ने	-6394
▁बातों	-6395
▁भिन्नता	-6396
46	-6397
हो	-6398
▁मतभेद	-6399
्वार	-6400
▁पारिस्थित	-6401
▁उग	-6402
▁कथन	-6403
ोटी	-6404
▁वाद	-6405
▁पहाड़ियों	-6406
▁कार्र	-6407
▁आवश्यकताओं	-6408
जीत	-6409
▁भंग	-6410
▁माय	-6411
▁ऑप	-6412
▁असं	-6413
▁निज	-6414
▁स्टॉक	-6415
▁बुलाया	-6416
▁स्वाभाविक	-6417
ाजील	-6418
▁65	-6419
▁com	-6420
▁मनोवैज्ञानिक	-6421
▁लखी	-6422
▁विघ	-6423
▁मारा	-6424
▁पूर्ति	-6425
▁चित्रों	-6426
क्षणिक	-6427
▁हुसैन	-6428
▁भारतीयों	-6429
.18	-6430
ेंटी	-6431
▁आधे	-6432
▁शब्	-6433
ाइयों	-6434
किम	-6435
▁अफगान	-6436
▁समग्र	-6437
गेट	-6438
▁व्यवस्थित	-6439
.,	-6440
▁1952	-6441
▁चाय	-6442
▁छुट	-6443
▁उपास	-6444
▁शाखाओं	-6445
▁स्रोतों	-6446
▁संवैधानिक	-6447
▁दशकों	-6448
ुश	-6449
▁बताता	-6450
▁सम्प्रदाय	-6451
मां	-6452
▁फ्री	-6453
▁दि	-6454
▁प्रायद्वीप	-6455
▁खर	-6456
▁खिल	-6457
▁1986	-6458
▁थाई	-6459
▁जीवाणु	-6460
▁टक	-6461
▁छिप	-6462
▁दांत	-6463
▁रखकर	-6464
▁औरंगाबाद	-6465
साई	-6466
▁परिकल	-6467
कर्म	-6468
▁ग्रुप	-6469
प्रकाश	-6470
ment	-6471
द्धा	-6472
▁तुलसी	-6473
▁चित्रित	-6474
▁प्रतिष्ठा	-6475
▁विशेषताओं	-6476
साह	-6477
रीन	-6478
▁टॉ	-6479
▁वंशज	-6480
▁कीट	-6481
ज्ञानी	-6482
▁विश्वविद्यालयों	-6483
▁बेन	-6484
▁मैथ	-6485
विद्या	-6486
▁डिप	-6487
▁उल्ल	-6488
▁स्वस्थ	-6489
गि	-6490
शहर	-6491
▁वैध	-6492
27′	-6493
▁जमी	-6494
▁नाल	-6495
▁हूं	-6496
▁बाधा	-6497
▁अनुरोध	-6498
▁विद्युत्	-6499
बली	-6500
▁टिप्पणी	-6501
ंटन	-6502
राइ	-6503
▁34	-6504
मिक्स	-6505
▁जोधपुर	-6506
▁मिर्जा	-6507
▁न्यूजीलैंड	-6508
ुस	-6509
▁सार्व	-6510
▁उपरांत	-6511
▁प्रवाहित	-6512
▁हू	-6513
▁आयी	-6514
▁कों	-6515
▁देवर	-6516
▁सांसद	-6517
्ये	-6518
नेता	-6519
▁घात	-6520
ुद्दीन	-6521
▁मौखिक	-6522
हत	-6523
वंत	-6524
▁सब्	-6525
▁ब्रांड	-6526
▁क्रियाओं	-6527
ानेर	-6528
▁1977	-6529
▁कहने	-6530
▁कारकों	-6531
▁महाकाव्य	-6532
चकों	-6533
▁व्यापारी	-6534
र्मी	-6535
▁साँ	-6536
▁1967	-6537
▁कहलाती	-6538
▁संतुलन	-6539
▁बग	-6540
चालित	-6541
▁दीवारों	-6542
▁प्रोटोक	-6543
्ठ	-6544
▁निष	-6545
िस्था	-6546
▁पहुँचने	-6547
▁एकड़	-6548
▁तुम्	-6549
▁ग्रहों	-6550
▁पीली	-6551
▁मुद्दों	-6552
रोग	-6553
संग्रह	-6554
▁नामित	-6555
▁निकला	-6556
▁यात्रियों	-6557
▁जंगलों	-6558
▁उपर्युक्त	-6559
कीर्ण	-6560
▁चौथे	-6561
▁गोपाल	-6562
▁मजदूर	-6563
▁वयस्क	-6564
▁उन्नति	-6565
▁1957	-6566
▁मैक्स	-6567
▁सौंदर्य	-6568
▁स्ट्रीट	-6569
▁अनुसू	-6570
▁बलि	-6571
▁मोटे	-6572
क्रमित	-6573
▁हिंदु	-6574
▁400	-6575
▁कूट	-6576
▁दलित	-6577
▁सिंचाई	-6578
▁मानने	-6579
▁क्रांतिकारी	-6580
जिन	-6581
▁नान	-6582
▁बचाव	-6583
गिर	-6584
▁लाखों	-6585
▁आदिवासी	-6586
नीस	-6587
▁27.5	-6588
▁रचनाएँ	-6589
▁प्रीमियर	-6590
007	-6591
end	-6592
हासन	-6593
▁घायल	-6594
▁बारी	-6595
▁न्यूटन	-6596
▁de	-6597
▁ex	-6598
ीनगर	-6599
▁गोवा	-6600
▁चौधरी	-6601
▁सेल्स	-6602
▁मिसाइल	-6603
ोसिस	-6604
िसन	-6605
क्सन	-6606
गोरी	-6607
रचना	-6608
िबंधीय	-6609
▁24.81	-6610
▁अगली	-6611
▁मार्क	-6612
▁स्वीकृति	-6613
▁वध	-6614
▁मछल	-6615
▁ऑक्स	-6616
▁निरी	-6617
ran	-6618
▁उड़ी	-6619
▁परिवारों	-6620
िवी	-6621
▁इंग	-6622
▁अद्भुत	-6623
चाप	-6624
▁गहरे	-6625
▁खिताब	-6626
▁बनायी	-6627
▁पेय	-6628
▁सिंगा	-6629
▁एजेंसी	-6630
▁प्रशांत	-6631
ंठ	-6632
▁खतर	-6633
▁नरेश	-6634
मोर	-6635
▁अनुसरण	-6636
90	-6637
▁ब्राह्म	-6638
डान	-6639
▁दमन	-6640
▁नेत्र	-6641
▁अभिक्रिया	-6642
▁जनजाति	-6643
भास	-6644
▁रियासत	-6645
▁द्वीपसमूह	-6646
32	-6647
िम्प	-6648
▁आना	-6649
नेशनल	-6650
▁मेले	-6651
▁प्रतिस्पर्धा	-6652
▁An	-6653
गुरु	-6654
▁79.4	-6655
ong	-6656
दिष्ट	-6657
▁दलों	-6658
ानि	-6659
्तन	-6660
▁1973	-6661
▁ऊँचे	-6662
▁प्रक्षेपण	-6663
▁तद	-6664
▁शती	-6665
▁बिलियन	-6666
▁जोड़ी	-6667
▁वायुमंडल	-6668
ैस	-6669
▁टाइप	-6670
▁चरणों	-6671
▁जरूरी	-6672
▁जनपद	-6673
▁सवाल	-6674
▁अन्ना	-6675
▁आखिरी	-6676
▁कोलंब	-6677
▁गिरजा	-6678
▁प्रबन्ध	-6679
बेस	-6680
▁काठ	-6681
▁विपणन	-6682
▁रिचर्ड	-6683
और	-6684
▁रंगों	-6685
▁बाढ़	-6686
▁भट	-6687
▁परिश	-6688
▁प्रतिवर्ष	-6689
▁सफलतापूर्वक	-6690
.50	-6691
ight	-6692
▁पार्व	-6693
▁कन	-6694
▁लेखों	-6695
▁शाका	-6696
▁सोना	-6697
▁जानने	-6698
▁अल्लाह	-6699
▁विवेचन	-6700
▁\	-6701
▁1988	-6702
▁आपात	-6703
▁गीतों	-6704
▁शासित	-6705
फोर्निया	-6706
▁गणतंत्र	-6707
बन	-6708
▁कौश	-6709
▁राजी	-6710
▁प्रभु	-6711
▁38	-6712
▁फेफ	-6713
▁आयात	-6714
▁बाँध	-6715
▁पुराणों	-6716
गमन	-6717
▁im	-6718
▁गहन	-6719
▁कार्ल	-6720
▁कार्रवाई	-6721
ंगों	-6722
▁आजम	-6723
परेशन	-6724
्वामी	-6725
▁कुंड	-6726
▁चुंबकीय	-6727
▁कहे	-6728
▁दिग	-6729
▁कप्तान	-6730
िनि	-6731
▁इक	-6732
जाबाद	-6733
▁राजनीतिज्ञ	-6734
मान्य	-6735
▁1857	-6736
पेश	-6737
▁ड्यू	-6738
▁कार्ट	-6739
▁खज	-6740
▁इंस	-6741
▁शनि	-6742
▁1987	-6743
▁लेखा	-6744
▁इंदिरा	-6745
▁स्पेक्ट	-6746
▁मानद	-6747
▁मुकाबले	-6748
▁1985	-6749
▁छिद्र	-6750
▁निश्चय	-6751
▁हड़	-6752
द्युत	-6753
▁कमाई	-6754
▁एकत्रित	-6755
ोनें	-6756
पोल	-6757
्टिन	-6758
▁खली	-6759
▁नंद	-6760
▁काल्प	-6761
▁सड़कों	-6762
शियम	-6763
स्ते	-6764
▁मतदान	-6765
तो	-6766
▁टाटा	-6767
▁फूलों	-6768
बुल	-6769
ांकित	-6770
▁सिंगापुर	-6771
▁पढ	-6772
▁शिर	-6773
▁मैसूर	-6774
▁डु	-6775
▁खेले	-6776
▁फिरोज	-6777
न्ग	-6778
पेट	-6779
istan	-6780
▁इनको	-6781
कू	-6782
ैम	-6783
्तिक	-6784
▁जावा	-6785
▁महर्षि	-6786
▁पृष्ठभूमि	-6787
▁प्रतिदिन	-6788
▁बातें	-6789
णक	-6790
▁उड़ीसा	-6791
21	-6792
▁कथाओं	-6793
▁सरकारों	-6794
▁श्रेणियों	-6795
रू	-6796
विष्ट	-6797
ोरेशन	-6798
▁लगाए	-6799
▁मक्का	-6800
▁श्रीकृष्ण	-6801
ड्र	-6802
▁चौक	-6803
▁तीव्रता	-6804
▁नकारात्मक	-6805
कली	-6806
▁मर्	-6807
ोडियम	-6808
ख्त	-6809
ब्स	-6810
▁अच	-6811
▁वापसी	-6812
▁भागीदारी	-6813
▁दाम	-6814
▁डाउन	-6815
▁रोजगार	-6816
▁संपादन	-6817
▁स्पर्श	-6818
▁79°	-6819
▁कोष	-6820
ियाना	-6821
▁निपट	-6822
▁राजशाही	-6823
ure	-6824
ोबा	-6825
ोरम	-6826
▁अष्ट	-6827
▁सेमी	-6828
▁बिल्कुल	-6829
्थ	-6830
▁नीला	-6831
▁अभियांत्रिकी	-6832
▁बजट	-6833
▁विकार	-6834
▁सहमति	-6835
▁ग्रेगोरी	-6836
▁अंज	-6837
▁धर्मों	-6838
▁गेह	-6839
▁पूछ	-6840
ध्याय	-6841
▁उतना	-6842
▁उत्साह	-6843
▁सर्विस	-6844
जित	-6845
▁गिन	-6846
▁अखिल	-6847
▁उत्तेज	-6848
▁निभ	-6849
▁कब्र	-6850
कोण	-6851
▁रेट	-6852
▁मानता	-6853
▁समक्ष	-6854
जि	-6855
ज़ब	-6856
▁निम	-6857
▁हिट	-6858
▁अस्थायी	-6859
ish	-6860
्‍व	-6861
स्मान	-6862
▁परिणामों	-6863
▁रामपुर	-6864
▁ऊँची	-6865
▁राग	-6866
▁ट्रै	-6867
▁पीटर	-6868
▁लिखते	-6869
▁॥	-6870
▁गठित	-6871
▁कालेज	-6872
▁शिक्षक	-6873
ोषक	-6874
▁इज़	-6875
▁ईसवी	-6876
ear	-6877
चक्र	-6878
▁प्रतिस्था	-6879
▁चमोली	-6880
फिक	-6881
▁एसोसिएशन	-6882
▁UK	-6883
▁बहि	-6884
▁1940	-6885
▁लीला	-6886
ज़ल	-6887
ोक्	-6888
▁नाट्य	-6889
▁भूल	-6890
धिकरण	-6891
▁नक्ष	-6892
▁वेतन	-6893
▁फिलिप	-6894
▁लवण	-6895
▁तटीय	-6896
ेब	-6897
▁बरेली	-6898
प्रसिद्ध	-6899
भ्र	-6900
▁अन्व	-6901
▁उतार	-6902
▁माउंट	-6903
▁एडवर्ड	-6904
▁कंट	-6905
▁वाक	-6906
▁सटीक	-6907
▁स्तरों	-6908
▁काल्पनिक	-6909
▁पटक	-6910
▁मन्त्र	-6911
▁फतेहपुर	-6912
▁इनसे	-6913
स्थिति	-6914
▁मोक्ष	-6915
हद	-6916
▁87	-6917
▁मारने	-6918
▁प्रकरण	-6919
्विन	-6920
▁जुल	-6921
▁4.	-6922
ेस्ट	-6923
ियापुर	-6924
▁अद्वितीय	-6925
▁विद्यार्थी	-6926
▁from	-6927
त्ते	-6928
फिया	-6929
▁हैरी	-6930
▁ग्वाल	-6931
▁गर्मियों	-6932
▁संदर्भित	-6933
▁एण्ड	-6934
जीरिया	-6935
▁रुद्र	-6936
न्नी	-6937
▁एटा	-6938
▁कमांड	-6939
▁तत्त्व	-6940
▁पें	-6941
▁उक्त	-6942
▁लम्बाई	-6943
▁पुर्तगाली	-6944
▁पोप	-6945
दूस	-6946
▁डेन	-6947
▁संशोधित	-6948
सरे	-6949
ोराइड	-6950
▁बट	-6951
▁अनुक्रम	-6952
डि	-6953
ंघन	-6954
वाने	-6955
▁मेह	-6956
दारों	-6957
▁विलु	-6958
▁स्मिथ	-6959
▁इंजीनिय	-6960
▁केन्द्रित	-6961
सनीय	-6962
▁ऑस्ट्रेलियाई	-6963
▁ताज	-6964
▁तन्त्र	-6965
▁विभागों	-6966
87	-6967
नम	-6968
दायक	-6969
स्पद	-6970
▁सदस्यता	-6971
▁गार	-6972
▁चित्त	-6973
▁जिनमे	-6974
▁प्रोटोकॉल	-6975
▁रोल	-6976
▁फैली	-6977
▁कन्नड़	-6978
सेल	-6979
▁बास	-6980
▁गैले	-6981
▁तारी	-6982
▁ब्ला	-6983
▁जौनपुर	-6984
कटिबंधीय	-6985
▁आर्क	-6986
▁बिता	-6987
▁ग्रन्थों	-6988
षेक	-6989
ार्कट	-6990
ue	-6991
°5	-6992
▁साधना	-6993
▁स्वदेश	-6994
▁माइक्रोस	-6995
म्‍	-6996
▁इल	-6997
▁गाज	-6998
▁मेडिकल	-6999
▁कार्यान	-7000
गोलीय	-7001
वात	-7002
▁संगीतकार	-7003
ंटा	-7004
केश	-7005
▁स्वतन्त्रता	-7006
ry	-7007
किक	-7008
▁सुग	-7009
▁सिविल	-7010
▁ऑल	-7011
संस्	-7012
▁उर्व	-7013
▁अनेकों	-7014
एव	-7015
▁अचान	-7016
▁कमरे	-7017
tt	-7018
▁आचार	-7019
-3	-7020
▁इब्	-7021
69	-7022
▁नाय	-7023
▁मॉड	-7024
▁रिलीज	-7025
▁दिवसीय	-7026
ैत	-7027
▁डेम	-7028
▁अन्न	-7029
▁मूल्यों	-7030
▁अवध	-7031
▁पर्वतों	-7032
ord	-7033
निर	-7034
▁मीन	-7035
▁ख्याति	-7036
▁विटामिन	-7037
▁पूर्वोत्तर	-7038
65	-7039
▁कवर	-7040
▁एसिड	-7041
▁गोला	-7042
▁मेरा	-7043
▁अचानक	-7044
▁प्रमाणित	-7045
’,	-7046
यूर	-7047
▁अनाज	-7048
▁नौकर	-7049
88	-7050
्लेष	-7051
▁बहस	-7052
▁माध्यमिक	-7053
rit	-7054
▁1969	-7055
▁समतल	-7056
▁नाटकों	-7057
▁हरी	-7058
वृत्ति	-7059
▁हराया	-7060
▁डोम	-7061
यो	-7062
▁खतरे	-7063
▁जानवर	-7064
▁झू	-7065
्नों	-7066
io	-7067
▁फ्ला	-7068
▁जनक	-7069
▁वसा	-7070
▁बन्द	-7071
▁मौका	-7072
▁आइंस्ट	-7073
▁रात्रि	-7074
▁निकलता	-7075
▁चिन	-7076
▁बार्	-7077
▁वैष्णव	-7078
गित	-7079
ग्रा	-7080
▁टि	-7081
भूषण	-7082
▁आखिर	-7083
▁मोदी	-7084
▁ईस्वी	-7085
▁पंक्ति	-7086
ग्वेद	-7087
▁जगहों	-7088
▁महारानी	-7089
▁विधा	-7090
नियां	-7091
बोर्ड	-7092
▁सहमत	-7093
▁इंदौर	-7094
चिकित्सा	-7095
स्तर	-7096
▁छाप	-7097
▁दृश	-7098
लीपुर	-7099
▁कैलंडर	-7100
▁विल्सन	-7101
फारिश	-7102
▁लॉर्ड	-7103
▁राजकीय	-7104
▁अपन	-7105
▁ऊंची	-7106
▁बलों	-7107
▁निरूप	-7108
▁कार्यान्व	-7109
▁गुड़	-7110
▁सीधा	-7111
टावा	-7112
गरानी	-7113
चेस्टर	-7114
▁बलराम	-7115
▁मार्क्स	-7116
▁स्कूलों	-7117
जेब	-7118
ितु	-7119
▁देह	-7120
ष्टाचार	-7121
▁गुरुत्वा	-7122
ेषण	-7123
▁भ्रूण	-7124
▁श्राव	-7125
▁समर्थक	-7126
भाई	-7127
▁दंत	-7128
▁पड़ते	-7129
▁न्यूज़	-7130
▁निष्क्रिय	-7131
ell	-7132
मिल	-7133
िटर	-7134
▁पच	-7135
▁खबर	-7136
▁कागज	-7137
▁दौड़	-7138
▁सलाहकार	-7139
-19	-7140
▁चोटी	-7141
▁यादव	-7142
▁साझा	-7143
संघ	-7144
तकों	-7145
▁त्यो	-7146
ियाबाद	-7147
▁पोषण	-7148
र्ध	-7149
▁he	-7150
▁उपनाम	-7151
▁प्रचुर	-7152
्ठा	-7153
▁अनाव	-7154
वादा	-7155
ोर्न	-7156
▁आराम	-7157
▁मोड़	-7158
▁रहें	-7159
क्टीरिया	-7160
▁पूर्वज	-7161
▁हिमाचल	-7162
ल्‍	-7163
ूर्ति	-7164
▁एयरलाइ	-7165
ुए	-7166
प्पल	-7167
िलाबाद	-7168
▁बाबू	-7169
▁सिफारिश	-7170
▁लोकतंत्र	-7171
▁प्रतापगढ़	-7172
▁वनों	-7173
▁पेशकश	-7174
▁सेनाओं	-7175
▁परियोजनाओं	-7176
लक	-7177
▁पैसे	-7178
▁पड़ोसी	-7179
िंग्स	-7180
▁बर्मा	-7181
▁निगरानी	-7182
मैं	-7183
▁वॉल	-7184
▁रायगढ़	-7185
यारी	-7186
ामाण	-7187
▁ऐल्	-7188
▁अतीत	-7189
▁अवलोक	-7190
▁ड्राइव	-7191
▁मार्शल	-7192
▁तिब्बती	-7193
▁सिकन्दरपुर	-7194
ष्‍ट	-7195
▁कैलिफोर्निया	-7196
▁माला	-7197
▁माया	-7198
▁लड़की	-7199
▁छोड़ने	-7200
म्य	-7201
▁उपजिला	-7202
ानिया	-7203
ियांग	-7204
रप	-7205
out	-7206
ुदेव	-7207
▁लोहा	-7208
▁स्कोर	-7209
ोसा	-7210
▁इज	-7211
ब्लिक	-7212
▁अमीर	-7213
नाई	-7214
सलों	-7215
ॉर्ट	-7216
▁आवेश	-7217
▁सिक्किम	-7218
्यून	-7219
▁परे	-7220
▁रोह	-7221
वानिव	-7222
▁1979	-7223
▁1982	-7224
▁इकाइयों	-7225
▁प्रभावों	-7226
▁अवरोध	-7227
▁रायपुर	-7228
▁त्रिकोण	-7229
▁शुभ	-7230
▁वेदों	-7231
रात्रि	-7232
▁गणितीय	-7233
▁चट्टानों	-7234
▁इन्द	-7235
▁सिंहासन	-7236
कात	-7237
कार्य	-7238
▁मधुम	-7239
▁संकल्प	-7240
▁सम्बन्धी	-7241
ens	-7242
र्तक	-7243
▁सोडियम	-7244
▁जैक	-7245
▁वाद्य	-7246
▁बागेश्वर	-7247
नागरी	-7248
75	-7249
घन	-7250
▁एर	-7251
▁नाश	-7252
▁किशोर	-7253
▁खासकर	-7254
▁ब्रह्मांड	-7255
फ्ल	-7256
▁खेलते	-7257
▁मेगा	-7258
▁साउथ	-7259
▁चार्ट	-7260
▁भ्रष्टाचार	-7261
ण्डा	-7262
▁इकट	-7263
▁विला	-7264
स्तानी	-7265
▁असमर्थ	-7266
▁सूत्रों	-7267
▁सेवानिव	-7268
▁ऊतक	-7269
▁खाद	-7270
▁अनुच्छेद	-7271
▁007	-7272
▁टाइम	-7273
तांत्रिक	-7274
ष्कृत	-7275
▁चट्टान	-7276
▁लुई	-7277
भाग्य	-7278
▁असली	-7279
▁विनिम	-7280
▁महावीर	-7281
्‍या	-7282
rac	-7283
िकाएँ	-7284
▁कॉर्प	-7285
यनों	-7286
▁रिज	-7287
ंघम	-7288
र्ति	-7289
यंत्र	-7290
▁उज्ज	-7291
▁दुकान	-7292
▁अल्पसंख्यक	-7293
8′	-7294
ातु	-7295
िनो	-7296
▁खोला	-7297
▁बलिया	-7298
▁इतिहासकारों	-7299
शेखर	-7300
वाहाटी	-7301
रेन्द्र	-7302
'।	-7303
लग्न	-7304
वानी	-7305
▁रेख	-7306
ंटार्कट	-7307
▁आलोचकों	-7308
▁आनुवंशिक	-7309
बॉ	-7310
▁अले	-7311
▁घोड़े	-7312
▁मरी	-7313
साँचा	-7314
▁कोटि	-7315
ib	-7316
ैच	-7317
▁ईंट	-7318
▁कोह	-7319
▁फेल	-7320
▁बैल	-7321
▁वचन	-7322
प्राय	-7323
▁परिपथ	-7324
▁पहाड़ों	-7325
हस	-7326
ावत	-7327
▁टु	-7328
भुत्व	-7329
हत्या	-7330
▁श्वसन	-7331
▁कब	-7332
▁धरो	-7333
▁उठाया	-7334
▁पत्रों	-7335
▁ग्वालियर	-7336
सेट	-7337
▁ढाका	-7338
▁शिया	-7339
▁आधा	-7340
▁केल	-7341
▁दत्त	-7342
▁डॉक्टर	-7343
▁पुरातत्व	-7344
श्	-7345
▁लॉस	-7346
▁1981	-7347
▁ऋग्वेद	-7348
▁चतुर्थ	-7349
▁फैजाबाद	-7350
▁अदिलाबाद	-7351
▁मुनि	-7352
▁ऐल	-7353
किया	-7354
▁भाज	-7355
▁तरफ़	-7356
▁अब्दुल	-7357
▁वां	-7358
निष्ठ	-7359
▁सल्फ	-7360
▁आतंकवाद	-7361
▁अदिलाबादु	-7362
काशी	-7363
▁कंक	-7364
▁बनकर	-7365
▁करनेवाले	-7366
▁27.18	-7367
▁चंद्रमा	-7368
ach	-7369
बोध	-7370
लाइट	-7371
पुराण	-7372
▁झांसी	-7373
▁हितों	-7374
किट	-7375
्सन	-7376
▁गि	-7377
▁गुल	-7378
कवि	-7379
▁मैग	-7380
मण्डल	-7381
▁1964	-7382
▁सृजन	-7383
▁महमूद	-7384
▁उत्तराधिकार	-7385
▁राणा	-7386
▁समावेश	-7387
▁शही	-7388
▁सिप	-7389
मापुर	-7390
▁परिमाण	-7391
▁साधनों	-7392
▁गुवाहाटी	-7393
▁39	-7394
लैण्ड	-7395
ाइटी	-7396
▁नाभिकीय	-7397
▁इब्न	-7398
▁जोड़े	-7399
▁ब्राजील	-7400
▁प्रारम्भिक	-7401
ोजक	-7402
त्पर्य	-7403
▁औरंगजेब	-7404
ायें	-7405
▁85.4	-7406
▁इमारतों	-7407
▁उल्लंघन	-7408
36′	-7409
प्ल	-7410
▁आँख	-7411
▁अवयव	-7412
▁निषे	-7413
▁प्रतिबि	-7414
▁सहारनपुर	-7415
ूनों	-7416
ॉर्म	-7417
वासीय	-7418
्याज	-7419
▁भाप	-7420
▁क्रे	-7421
▁भेजे	-7422
▁धरोहर	-7423
▁यूनान	-7424
▁असाधारण	-7425
▁चित्रकूट	-7426
34	-7427
▁लड़क	-7428
▁पटकथा	-7429
▁संकलन	-7430
▁अवसरों	-7431
रोधी	-7432
▁तत्काल	-7433
▁तकनीकों	-7434
▁सेल्सियस	-7435
▁कने	-7436
▁दाँ	-7437
▁रोश	-7438
▁साव	-7439
▁पहुँचे	-7440
▁पार्वती	-7441
-4	-7442
ost	-7443
तें	-7444
विया	-7445
▁आइस	-7446
▁इंट	-7447
ूटिंग	-7448
▁1945	-7449
▁अधिग्रहण	-7450
▁प्रोत्साहन	-7451
//	-7452
तको	-7453
▁भरे	-7454
▁पत्थ	-7455
▁निशान	-7456
▁पूल	-7457
▁प्रभुत्व	-7458
▁नाइट्रोजन	-7459
▁अंड	-7460
▁पीने	-7461
▁सर्वर	-7462
वाय	-7463
िक्	-7464
▁जरिए	-7465
ge	-7466
प्रसाद	-7467
बेरिया	-7468
▁तपस्या	-7469
▁साक्ष्य	-7470
▁उद्देश्यों	-7471
ग्स	-7472
▁86	-7473
▁भेजने	-7474
पश्चिमी	-7475
▁निया	-7476
▁सदैव	-7477
▁दुश्म	-7478
▁सूचित	-7479
ोक्ताओं	-7480
▁रेगिस्तान	-7481
सौ	-7482
▁आपकी	-7483
शिंगटन	-7484
ारियों	-7485
▁विक्ट	-7486
▁एलिज़ा	-7487
▁सैकड़ों	-7488
शिल्प	-7489
▁रहेगा	-7490
डब्ल्यू	-7491
▁छप	-7492
दावली	-7493
क्षकों	-7494
▁क्रोम	-7495
▁कोले	-7496
▁भुजा	-7497
▁लक्ष्मण	-7498
per	-7499
नांक	-7500
▁1983	-7501
▁अवैध	-7502
▁सदियों	-7503
▁सम्पन्न	-7504
▁तेज़	-7505
▁नर्म	-7506
▁संग्र	-7507
▁विस्था	-7508
▁मिर्जापुर	-7509
षाण	-7510
land	-7511
▁जाट	-7512
▁ईरानी	-7513
▁अध्यक्षता	-7514
▁जाएँ	-7515
▁जादू	-7516
▁निकटतम	-7517
▁प्रतिपादन	-7518
ज़रत	-7519
▁पैदल	-7520
▁औषधि	-7521
▁तस्वीर	-7522
▁तात्पर्य	-7523
स्का	-7524
ादून	-7525
▁मेन	-7526
▁1976	-7527
▁चालक	-7528
▁देहर	-7529
▁इटावा	-7530
▁ग्यार	-7531
▁विलयन	-7532
ादर	-7533
िपि	-7534
पल्ली	-7535
▁भीतरी	-7536
ओँ	-7537
▁मीर	-7538
▁इताल	-7539
काव	-7540
क्की	-7541
▁खुश	-7542
▁वाम	-7543
▁मोर्	-7544
://	-7545
▁संभाल	-7546
वृ	-7547
ुलर	-7548
▁गर्भा	-7549
▁गाड़ी	-7550
▁स्वागत	-7551
जिंग	-7552
परिवार	-7553
▁मुग़ल	-7554
▁आवासीय	-7555
ुणा	-7556
▁पहुंचे	-7557
ory	-7558
ढ़ा	-7559
प्स	-7560
ुद्व	-7561
▁आपसी	-7562
▁सर्प	-7563
▁यूनियन	-7564
ंतुओं	-7565
▁थॉमस	-7566
मों	-7567
▁अतएव	-7568
▁स्पी	-7569
▁सोसाइटी	-7570
▁भि	-7571
▁पक्षों	-7572
▁समाजवादी	-7573
||	-7574
▁तलाश	-7575
▁प्रशंस	-7576
कलन	-7577
ारू	-7578
▁1954	-7579
वेग	-7580
▁अपील	-7581
▁तैयारी	-7582
ल्लाह	-7583
▁1961	-7584
▁निकले	-7585
▁महाराणा	-7586
शो	-7587
▁सती	-7588
▁1949	-7589
▁गान्	-7590
▁पैलेस	-7591
▁भावनाओं	-7592
▁ब्रह्माण्ड	-7593
ंती	-7594
▁आह	-7595
▁लौह	-7596
▁क्रू	-7597
▁खगोलीय	-7598
वो	-7599
▁76	-7600
▁वकी	-7601
त्विक	-7602
▁समझी	-7603
▁इंटरनेशनल	-7604
▁पर्वतमाला	-7605
▁गुरुत्वाकर्षण	-7606
गुण	-7607
टित	-7608
▁आयन	-7609
▁सुस	-7610
▁खुदाई	-7611
▁उन्नीस	-7612
दीप	-7613
ब्लू	-7614
▁फ़िल	-7615
▁ऑट	-7616
▁सकल	-7617
▁खाली	-7618
▁उपयोगिता	-7619
▁स्थापत्य	-7620
▁बनार	-7621
▁अक्षरों	-7622
▁फाय	-7623
▁भिक्ष	-7624
▁त्रुटि	-7625
▁प्रदूषण	-7626
▁शाहजहां	-7627
▁देहरादून	-7628
▁पुर्तगाल	-7629
▁पठ	-7630
▁विहार	-7631
▁पर्वतीय	-7632
▁फ़र	-7633
▁25°0	-7634
▁इसपर	-7635
ism	-7636
ढ़े	-7637
परिव	-7638
▁स्फ	-7639
▁हज़रत	-7640
पै	-7641
्वल	-7642
▁पंथ	-7643
▁बचे	-7644
▁बड़	-7645
▁बैठे	-7646
▁व्यंग	-7647
▁निर्दिष्ट	-7648
नपुरी	-7649
▁उपजा	-7650
▁जरूर	-7651
▁टेक्स	-7652
▁कुशीनगर	-7653
▁इंडोनेशिया	-7654
द्दे	-7655
▁250	-7656
▁फरी	-7657
िल्ला	-7658
▁बुरी	-7659
▁फेर	-7660
▁1978	-7661
▁उदयपुर	-7662
▁पात्रों	-7663
▁प्रामाण	-7664
▁विलुप्त	-7665
िएट	-7666
▁47	-7667
▁रथ	-7668
हाइड	-7669
▁1974	-7670
▁गोंडा	-7671
▁बहुधा	-7672
so	-7673
स्सी	-7674
ांकी	-7675
▁प्रां	-7676
▁कश्मीरी	-7677
ai	-7678
हु	-7679
▁अभयार	-7680
▁एलिज़ाबेथ	-7681
▁कार्यकर्ता	-7682
▁उपयोगकर्ताओं	-7683
पना	-7684
▁पावर	-7685
▁सर्दियों	-7686
▁चट	-7687
▁बख	-7688
▁नगरी	-7689
▁नदियाँ	-7690
यां	-7691
रीबी	-7692
▁कथित	-7693
▁व्यंज	-7694
▁अमृतसर	-7695
▁सिकंदर	-7696
▁सीरिया	-7697
ाकू	-7698
▁खार	-7699
▁त्यौ	-7700
▁उर्जा	-7701
▁भाजपा	-7702
▁संतोष	-7703
▁सरलता	-7704
:00	-7705
▁भै	-7706
यंकर	-7707
हाइट	-7708
▁तेर	-7709
▁बढ़ी	-7710
▁प्रिंस	-7711
▁प्रबंधक	-7712
कॉ	-7713
िवारिक	-7714
निर्देश	-7715
▁परिवर्तनों	-7716
▁बाध्य	-7717
▁सेकंड	-7718
चरित	-7719
▁गोस	-7720
▁अपितु	-7721
▁मानकों	-7722
▁गिरजाघर	-7723
▁रूपांतरण	-7724
न्य	-7725
वारा	-7726
▁खाल	-7727
▁आर्म	-7728
▁ओजोन	-7729
▁मेक्स	-7730
ांच	-7731
▁औस	-7732
▁चिर	-7733
▁रहकर	-7734
▁हटाने	-7735
▁स्नातको	-7736
वेट	-7737
फ़्ट	-7738
▁व्यय	-7739
▁लगाकर	-7740
▁मैनपुरी	-7741
-6	-7742
मिश	-7743
▁us	-7744
▁ज़मीन	-7745
▁लड़ने	-7746
▁आमंत्रित	-7747
माल	-7748
▁टिकट	-7749
▁व्यस्त	-7750
▁नामांकन	-7751
▁अध्ययनों	-7752
-8	-7753
ोदय	-7754
▁पिंड	-7755
▁ह्यू	-7756
▁आज्ञा	-7757
▁जितनी	-7758
▁विधेय	-7759
▁आकाशगंगा	-7760
▁लव	-7761
▁रायब	-7762
मोद	-7763
मुक्त	-7764
▁अटला	-7765
व्यापी	-7766
▁कम्युन	-7767
▁अधिवेशन	-7768
ौरी	-7769
▁क़ान	-7770
▁खाता	-7771
▁एजेंट	-7772
▁इतालवी	-7773
▁बढ़ाया	-7774
▁आइंस्टीन	-7775
उप	-7776
डेल	-7777
न्तर	-7778
▁पूँ	-7779
▁सुदूर	-7780
▁शैक्षणिक	-7781
▁:-	-7782
ोत्त	-7783
▁क़ुर	-7784
▁कठिनाई	-7785
▁परिचित	-7786
विस	-7787
▁एट	-7788
तिकी	-7789
▁फलों	-7790
पनिवेश	-7791
▁जीवनी	-7792
▁बनावट	-7793
▁मांसपेश	-7794
ंगनी	-7795
▁नास	-7796
दूसरे	-7797
▁सूडान	-7798
▁चिक	-7799
▁मैंने	-7800
▁श्याम	-7801
फ्फरनगर	-7802
▁वस्तुतः	-7803
▁सीतापुर	-7804
पुत्र	-7805
र्स्ट	-7806
▁टेक्	-7807
▁भंडार	-7808
▁सिन्धु	-7809
▁चलचित्र	-7810
▁विदेशों	-7811
आंग	-7812
ेडी	-7813
▁सतत	-7814
राचार्य	-7815
▁क्षत्र	-7816
▁श्रीमती	-7817
▁प्राधिकरण	-7818
ॉयड	-7819
▁सैल	-7820
▁भयंकर	-7821
▁बुध	-7822
नात	-7823
▁बीक	-7824
▁ईसापूर्व	-7825
▁प्रयोगों	-7826
▁वेश	-7827
▁ऊष्मा	-7828
▁अंतराल	-7829
▁योद्धा	-7830
▁हाइड्र	-7831
°08′	-7832
िवेदी	-7833
म्परिक	-7834
▁डालने	-7835
▁अंटार्कट	-7836
स्स	-7837
▁हिर	-7838
▁भागवत	-7839
ंबित	-7840
▁...	-7841
▁बेग	-7842
▁स्नातकोत्तर	-7843
▁ओपन	-7844
▁खून	-7845
▁ऑस्ट	-7846
▁सुविधाएं	-7847
▁सैद्धांतिक	-7848
▁छत्र	-7849
▁आनन्द	-7850
▁अमी	-7851
▁अम्ब	-7852
▁कष्ट	-7853
▁परिस्थिति	-7854
▁अफ़ग़ानिस्तान	-7855
-5	-7856
▁खैर	-7857
▁1966	-7858
▁पारिवारिक	-7859
▁चौद	-7860
▁जेन	-7861
▁ढाल	-7862
▁उग्र	-7863
▁बुला	-7864
▁बदलकर	-7865
▁मासिक	-7866
▁अफगानिस्तान	-7867
▁ब्लॉक	-7868
▁सार्वभौ	-7869
▁सेंट्रल	-7870
कक्ष	-7871
▁बिलकुल	-7872
▁शानदार	-7873
ath	-7874
थिक	-7875
▁यम	-7876
▁देगा	-7877
▁लौटने	-7878
▁हानिक	-7879
▁आजमगढ़	-7880
▁कृतियों	-7881
43	-7882
ैक्ट	-7883
▁सिरे	-7884
▁शिवलिंग	-7885
▁रचनात्मक	-7886
्नी	-7887
ंटिक	-7888
▁ऐंड	-7889
▁संक्रमित	-7890
▁पत्थरों	-7891
▁काँ	-7892
▁डिवी	-7893
▁वर्षीय	-7894
▁उम्मीदवार	-7895
▁खुर्द	-7896
ated	-7897
▁प्रभाग	-7898
▁स्तम्भ	-7899
▁परिकल्पना	-7900
▁यांत्रिकी	-7901
▁गज	-7902
▁पहलू	-7903
-7	-7904
23	-7905
दत्त	-7906
माना	-7907
्स्य	-7908
▁यूएस	-7909
▁कलात्मक	-7910
ट्रिक	-7911
▁मास्टर	-7912
▁संलग्न	-7913
▁त्योहार	-7914
▁बौद्धिक	-7915
देन	-7916
मंच	-7917
म्र	-7918
▁1955	-7919
▁राजनेता	-7920
ष्ठान	-7921
▁अपरा	-7922
▁आवरण	-7923
▁ओलम्प	-7924
akistan	-7925
▁पिथोरा	-7926
▁हिन्दुओं	-7927
फु	-7928
olor	-7929
▁निरीक्षण	-7930
135	-7931
ोटा	-7932
▁झर	-7933
विंग	-7934
▁ओड	-7935
▁120	-7936
▁देवनागरी	-7937
-9	-7938
ँह	-7939
ern	-7940
▁चूँ	-7941
▁चेता	-7942
▁मराठा	-7943
▁व्यतीत	-7944
▁आंकड़ों	-7945
▁ch	-7946
प्रण	-7947
▁पैट	-7948
▁तमाम	-7949
▁फर्रु	-7950
जागर	-7951
▁चित	-7952
▁इमाम	-7953
▁संबोधित	-7954
40′′	-7955
▁स्त्रियों	-7956
ple	-7957
शास	-7958
▁औसतन	-7959
▁हार्म	-7960
ुज	-7961
कोहल	-7962
▁छेद	-7963
▁भेंट	-7964
▁लैंड	-7965
▁डीएनए	-7966
▁मूलभूत	-7967
▁विषाणु	-7968
▁फ़्रांस	-7969
▁आश्व	-7970
▁मामला	-7971
,7	-7972
।'	-7973
▁un	-7974
▁नली	-7975
▁निल	-7976
▁अंडर	-7977
▁सीखने	-7978
▁सोलहवीं	-7979
ूलन	-7980
▁अपमान	-7981
▁बाराब	-7982
▁बैंकों	-7983
▁वात	-7984
ोत्सव	-7985
▁पेट्रोल	-7986
▁गाजियाबाद	-7987
▁ग्रीष्मकालीन	-7988
eg	-7989
▁राइस	-7990
▁51	-7991
▁इथ	-7992
धियों	-7993
▁रूढ़	-7994
▁पार्ट	-7995
▁अंबेडकर	-7996
ब्रे	-7997
▁बॉण्ड	-7998
▁संदेह	-7999
हिर	-8000
▁गुट	-8001
▁होम	-8002
▁हमलों	-8003
▁कारोबार	-8004
च्य	-8005
ोध्या	-8006
▁पारम्परिक	-8007
चेंज	-8008
न्ज़	-8009
▁बिजन	-8010
▁मलेशिया	-8011
▁हिन्दुस्तान	-8012
न्ज	-8013
▁ओम	-8014
38′′	-8015
▁भले	-8016
ुख	-8017
पाट	-8018
▁पिघ	-8019
▁पेंट	-8020
▁अभयारण्य	-8021
▁जिम्मेदारी	-8022
ions	-8023
मिया	-8024
▁1958	-8025
▁प्राद	-8026
▁युद्धों	-8027
▁रक्तचाप	-8028
▁स्वयंसे	-8029
▁रायबरेली	-8030
गिरि	-8031
▁कृष	-8032
▁यौगिकों	-8033
नाग	-8034
▁वियत	-8035
▁बुलन्द	-8036
▁गोविन्द	-8037
▁लखीमपुर	-8038
▁64	-8039
▁वुड	-8040
च्छिक	-8041
ब्दियों	-8042
▁निर्माताओं	-8043
▁गले	-8044
▁हरदो	-8045
▁अपवाद	-8046
▁लुप्त	-8047
▁बंगलौर	-8048
▁स्वीकृत	-8049
पाक	-8050
▁Th	-8051
वर्थ	-8052
शैली	-8053
▁दाल	-8054
▁लाई	-8055
▁विश्वसनीय	-8056
फन	-8057
▁रसी	-8058
▁देशी	-8059
▁पिथोरागढ	-8060
▁ओवर	-8061
ड़ियाँ	-8062
▁लगाना	-8063
क्तियों	-8064
▁रणनीति	-8065
▁देवरिया	-8066
▁गे	-8067
▁हॉकी	-8068
▁आवाज़	-8069
▁कोयला	-8070
बीआई	-8071
विदास	-8072
▁हरिद	-8073
▁चूँकि	-8074
▁फसलों	-8075
▁एकीकरण	-8076
▁पहलुओं	-8077
▁टॉम	-8078
चों	-8079
सराय	-8080
▁असी	-8081
▁27.2	-8082
▁करियर	-8083
▁पिछली	-8084
▁वितरित	-8085
▁प्रतिरूप	-8086
ांख्य	-8087
▁1942	-8088
ign	-8089
▁आपे	-8090
दानिक	-8091
▁चालू	-8092
▁डेली	-8093
▁बिन	-8094
वृत्त	-8095
▁इनकार	-8096
▁सशस्त्र	-8097
कने	-8098
डों	-8099
▁दादा	-8100
▁पाउंड	-8101
▁प्रयाग	-8102
▁चन्द्रगुप्त	-8103
ियमित	-8104
▁1968	-8105
▁बैंकिंग	-8106
▁घुस	-8107
▁इर्द	-8108
▁बाला	-8109
ोरो	-8110
दरलैंड	-8111
▁बिजनौर	-8112
▁शब्दावली	-8113
42	-8114
अस	-8115
▁मऊ	-8116
ल्हा	-8117
▁रविदास	-8118
▁भागलपुर	-8119
▁प्रतिद्वंद्वी	-8120
▁लूट	-8121
वेस्ट	-8122
▁फुले	-8123
▁इस्ती	-8124
▁तथ्यों	-8125
▁तेलुगू	-8126
▁व्युत्पन्न	-8127
▁संस्कृतियों	-8128
आईटी	-8129
ुपति	-8130
▁सीधी	-8131
▁सिंधु	-8132
▁विधेयक	-8133
डेट	-8134
▁:09	-8135
▁:135	-8136
▁उठाने	-8137
▁स्वीडन	-8138
▁अस्वीकार	-8139
न्च	-8140
बास	-8141
▁ताराम	-8142
▁स्क्व	-8143
▁सूचीबद्ध	-8144
▁नवी	-8145
▁बेंगल	-8146
▁सकी	-8147
▁इच्छ	-8148
▁दिव्य	-8149
▁नमूने	-8150
सीड	-8151
▁कलाम	-8152
▁वल्ल	-8153
▁चौहान	-8154
▁हल्के	-8155
▁Pakistan	-8156
धक	-8157
▁99	-8158
▁नती	-8159
गिर्द	-8160
कस	-8161
▁आचरण	-8162
▁पुनर	-8163
▁स्मरण	-8164
▁फर्रुखाबाद	-8165
▁खीरी	-8166
▁गोत्र	-8167
▁बीकानेर	-8168
▁समाजशास्त्र	-8169
ायु	-8170
दक्ष	-8171
र्मित	-8172
▁श्रावस्ती	-8173
59	-8174
▁US	-8175
▁धरा	-8176
ानन्द	-8177
▁आस्था	-8178
▁पीलीभीत	-8179
ric	-8180
ust	-8181
▁तूफ	-8182
▁एपिस	-8183
▁अवसाद	-8184
▁सारणी	-8185
▁अयोध्या	-8186
ाणु	-8187
▁कां	-8188
▁टोक	-8189
दृश्य	-8190
नीकरण	-8191
मार्क	-8192
▁1946	-8193
▁रहित	-8194
▁झिल्ली	-8195
▁प्रशिक्षित	-8196
II	-8197
ence	-8198
▁अव्य	-8199
▁अवकाश	-8200
▁झारखंड	-8201
pt	-8202
▁सामंत	-8203
▁25°36′	-8204
▁खतरनाक	-8205
▁माइक्रो	-8206
▁बैक्टीरिया	-8207
▁माइक्रोसॉफ्ट	-8208
▁चंप	-8209
मांसा	-8210
▁ठंडा	-8211
उद्दीन	-8212
ड्स	-8213
▁5.	-8214
▁1963	-8215
▁समझते	-8216
▁जहाजों	-8217
▁पूर्णतया	-8218
▁ख़ास	-8219
▁79.50	-8220
▁उन्नाव	-8221
छोटे	-8222
▁नस्ल	-8223
▁बॉन्ड	-8224
▁कर्तव्य	-8225
▁उष्णकटिबंधीय	-8226
ठों	-8227
▁बांदा	-8228
ोग्राफी	-8229
▁85°08′	-8230
▁25.611;	-8231
▁25.611°	-8232
▁85.144°	-8233
▁श्रीनगर	-8234
▁जवाहरलाल	-8235
▁25°36′40′′	-8236
▁85°08′38′′	-8237
:30	-8238
गामी	-8239
िल्स	-8240
▁हीरो	-8241
▁चौड़ाई	-8242
▁मानवता	-8243
▁महामाया	-8244
▁योजनाओं	-8245
▁संक्षेप	-8246
▁ऑव	-8247
ृंगार	-8248
▁केशव	-8249
▁सीज़न	-8250
▁कविताओं	-8251
31	-8252
ब्दिक	-8253
▁दण्ड	-8254
▁चिंतन	-8255
▁इलेक्ट्रॉन	-8256
छित	-8257
ीनो	-8258
्यूब	-8259
▁विस	-8260
▁देहात	-8261
▁हानिकारक	-8262
uc	-8263
▁करार	-8264
▁नारी	-8265
स्परिक	-8266
▁राहुल	-8267
▁not	-8268
रेटिंग	-8269
्यात्मक	-8270
▁गान्धी	-8271
▁ललितपुर	-8272
▁मैने	-8273
▁अभिलेख	-8274
▁बिहारी	-8275
▁दर्शनीय	-8276
▁तुलनात्मक	-8277
ff	-8278
ttp	-8279
चस्प	-8280
▁प्रतिरक्षा	-8281
▁जनन	-8282
▁व्ह	-8283
▁वाहनों	-8284
▁उत्परिव	-8285
▁नैदानिक	-8286
ee	-8287
ेरी	-8288
दै	-8289
न्टी	-8290
िनेट	-8291
▁46	-8292
ख़्त	-8293
▁कहकर	-8294
{2	-8295
▁वैश	-8296
ोरिडा	-8297
▁ट्रैक	-8298
▁प्रयोजन	-8299
▁अदा	-8300
▁1921	-8301
▁गाथा	-8302
यात्रा	-8303
▁बेहतरी	-8304
▁वृक्षों	-8305
▁पत्रकारिता	-8306
ेटी	-8307
▁पुरी	-8308
▁रुपए	-8309
▁वक्र	-8310
▁अस्थि	-8311
▁चेहरे	-8312
▁न्यूर	-8313
▁पैरों	-8314
▁प्राचीनतम	-8315
स्टीट	-8316
▁ऊंचा	-8317
▁पूछा	-8318
▁मदुर	-8319
▁इण्डिया	-8320
पक्ष	-8321
▁चोल	-8322
भक्ति	-8323
▁टीबी	-8324
▁न्यायिक	-8325
दय	-8326
▁बैटरी	-8327
▁औपनिवेश	-8328
▁उपनिषदों	-8329
▁sp	-8330
▁सवाई	-8331
▁अंकों	-8332
▁भूभाग	-8333
▁नक्षत्र	-8334
▁मनी	-8335
▁लाए	-8336
▁पोषक	-8337
▁लाइव	-8338
▁अन्यथा	-8339
▁कैद	-8340
विशेष	-8341
▁पारी	-8342
▁सीटों	-8343
▁चुम्बकीय	-8344
▁कोच	-8345
▁दुसरे	-8346
▁नीदरलैंड	-8347
86	-8348
िवि	-8349
यंती	-8350
▁दीप	-8351
▁महोबा	-8352
▁56	-8353
▁शिम	-8354
▁खुली	-8355
▁चीज़	-8356
▁1919	-8357
▁कुरु	-8358
▁गाया	-8359
▁परेशान	-8360
▁बीसवीं	-8361
▁सोनभद्र	-8362
▁http	-8363
▁which	-8364
▁सफ़ेद	-8365
लू	-8366
▁धा	-8367
ंसिल	-8368
▁लार	-8369
▁किरा	-8370
सेवा	-8371
▁मुलाकात	-8372
ोपा	-8373
िएटर	-8374
▁हंग	-8375
▁लम्बा	-8376
श्चात्य	-8377
बंद	-8378
▁डैव	-8379
विदों	-8380
▁पेड़ों	-8381
▁रंगमंच	-8382
▁मार्टिन	-8383
▁अत्याचार	-8384
सेफ	-8385
▁कट्ट	-8386
▁वसंत	-8387
▁सोशल	-8388
▁मातृभाषा	-8389
▁प्रसिद्धि	-8390
▁सर्वोत्तम	-8391
▁आश्रय	-8392
▁इंग्लैण्ड	-8393
अमेर	-8394
ोक्स	-8395
▁घुमा	-8396
▁अवलोकन	-8397
▁पारस्परिक	-8398
ोइ	-8399
▁Ar	-8400
र्गन	-8401
क्ष्य	-8402
▁चन्द्रमा	-8403
पृ	-8404
ीर्ण	-8405
▁सहस	-8406
▁सूच	-8407
▁जिसको	-8408
▁मुकदमा	-8409
▁इन्होने	-8410
▁ओलम्पिक	-8411
ॉर	-8412
तान	-8413
ादि	-8414
▁लिन	-8415
▁आपका	-8416
▁जालौन	-8417
▁थोड़े	-8418
53′	-8419
गाव	-8420
कांग	-8421
▁ताकत	-8422
▁महाराजगंज	-8423
ver	-8424
ोपण	-8425
▁42	-8426
▁घेरे	-8427
ियारों	-8428
ूदियों	-8429
▁बढ़कर	-8430
9′	-8431
ालन	-8432
▁एक्ट	-8433
▁घातक	-8434
▁वकाल	-8435
▁देखना	-8436
▁दिखाने	-8437
▁बुलन्दशहर	-8438
iz	-8439
▁बलरामपुर	-8440
▁प्लास्टिक	-8441
▁फिरोजाबाद	-8442
झे	-8443
केन	-8444
▁खल	-8445
ियंस	-8446
▁क्षय	-8447
▁फर्म	-8448
▁आग्रह	-8449
▁मालवा	-8450
▁उपलब्धि	-8451
▁साथियों	-8452
▁क्रान्ति	-8453
▁लन्दन	-8454
नामा	-8455
▁तंज	-8456
▁एस्ट	-8457
▁राहत	-8458
▁विरू	-8459
▁शोषण	-8460
▁सोनी	-8461
▁भारती	-8462
▁पकड़ने	-8463
▁उपनगरीय	-8464
▁चम्पावत	-8465
▁पाश्चात्य	-8466
जुल	-8467
▁पला	-8468
▁जितने	-8469
▁ढांचे	-8470
▁एपिसोड	-8471
▁जोड़ता	-8472
पाद	-8473
▁क्रो	-8474
▁मरने	-8475
▁निजाम	-8476
▁शताब्दियों	-8477
प्न	-8478
▁गोद	-8479
▁शपथ	-8480
▁84	-8481
टर्स	-8482
▁दुर	-8483
▁उन्म	-8484
▁बयान	-8485
▁ख़त्म	-8486
▁वकालत	-8487
▁ताइ	-8488
▁बंदी	-8489
▁काटने	-8490
▁भ्रमण	-8491
▁चिड़िया	-8492
▁दिलचस्प	-8493
▁प्रखण्ड	-8494
▁72	-8495
ंचित	-8496
िपत्य	-8497
▁कैमर	-8498
▁ग्राफ	-8499
ोटिक	-8500
▁एंड्र	-8501
▁दरवाज	-8502
▁गोस्वामी	-8503
▁सामान्यत	-8504
▁उपन्यासों	-8505
ड्	-8506
▁5,	-8507
▁स्क्र	-8508
ंजर	-8509
▁पिट	-8510
्रेडिट	-8511
▁ब्राउ	-8512
▁सम्भव	-8513
▁ट्रस्ट	-8514
▁गणितज्ञ	-8515
▁चेतावनी	-8516
▁अनुसूचित	-8517
ोधी	-8518
▁जाग	-8519
▁नाप	-8520
▁अहिंसा	-8521
▁संकेतों	-8522
▁स्पोर्ट	-8523
ेंग	-8524
▁600	-8525
्रपान	-8526
▁तेलुगु	-8527
▁मुद्दे	-8528
सद	-8529
दानी	-8530
▁रेजी	-8531
▁लगाते	-8532
▁ज्योतिबा	-8533
{\	-8534
गृह	-8535
▁4,	-8536
भाला	-8537
▁मरु	-8538
▁रोमान	-8539
ob	-8540
ass	-8541
▁ओं	-8542
ज़िक	-8543
जैसे	-8544
ीनिया	-8545
▁बैठा	-8546
▁सकने	-8547
▁त्रिप	-8548
शस	-8549
िओ	-8550
▁उगा	-8551
▁फिल्में	-8552
▁शाकाहारी	-8553
▁पॉप	-8554
▁तिलक	-8555
▁हमारा	-8556
क्ख	-8557
ब्बे	-8558
▁अखबार	-8559
▁विवादा	-8560
नियाँ	-8561
वस्तु	-8562
▁वकील	-8563
▁एक्शन	-8564
▁फ्लैश	-8565
▁पद्य	-8566
▁कितना	-8567
▁रंगीन	-8568
ame	-8569
हें	-8570
▁गर	-8571
▁एस्प	-8572
▁बेगम	-8573
▁बारिश	-8574
खेरा	-8575
▁1928	-8576
▁जोशी	-8577
▁संस्करणों	-8578
बत	-8579
▁बुक	-8580
▁1939	-8581
▁उपासना	-8582
लोड	-8583
▁जेट	-8584
िमंडल	-8585
▁विकासशील	-8586
शुर	-8587
हाइ	-8588
▁==	-8589
गणित	-8590
▁उपजाऊ	-8591
जरत	-8592
▁पोत	-8593
▁ब्ले	-8594
▁तेज़ी	-8595
लह	-8596
वंशी	-8597
▁आईपी	-8598
▁क्ले	-8599
▁त्वर	-8600
▁तलवार	-8601
▁बेल्ज	-8602
लांग	-8603
▁अजी	-8604
▁अपर	-8605
▁बिश	-8606
न्नाथ	-8607
म्ब्र	-8608
▁पाठक	-8609
▁देखता	-8610
साहित्य	-8611
▁अनुयाय	-8612
▁त्यौहार	-8613
म्फ	-8614
▁ज्वर	-8615
▁डीवी	-8616
▁वनस्प	-8617
▁दृश्यों	-8618
▁रौ	-8619
▁मधु	-8620
▁बागपत	-8621
▁विघटन	-8622
▁इंस्टीट	-8623
▁कम्युनिस्ट	-8624
खार	-8625
▁दर्	-8626
▁कांच	-8627
स्थानी	-8628
▁गांवों	-8629
▁विरूद्ध	-8630
वर्ण	-8631
योग्य	-8632
▁असुर	-8633
▁बेटा	-8634
▁रद्द	-8635
▁लिंक	-8636
▁चाहती	-8637
▁प्रोज	-8638
▁मुफ्त	-8639
▁विकृत	-8640
▁मैदानों	-8641
शर	-8642
ोजनों	-8643
▁आवेदन	-8644
▁गरीबी	-8645
▁विनिमय	-8646
ace	-8647
बुक	-8648
▁दब	-8649
▁बांटा	-8650
▁मूत्र	-8651
▁प्रचालन	-8652
ौड़	-8653
▁170	-8654
▁मेक्सिको	-8655
▁शाहजहांपुर	-8656
हीत	-8657
विड़	-8658
व्यव	-8659
▁1936	-8660
▁प्रवास	-8661
▁स्कॉटिश	-8662
▁भारतवर्ष	-8663
थाम	-8664
नेर	-8665
▁अवर	-8666
ेशनों	-8667
▁ऑपरेशन	-8668
▁49	-8669
▁हाँ	-8670
▁कितनी	-8671
▁गार्डन	-8672
▁शिकायत	-8673
दनी	-8674
▁करो	-8675
▁सीम	-8676
▁सुप	-8677
दाताओं	-8678
ाउंडेशन	-8679
▁हिंदुओं	-8680
▁कोलंबिया	-8681
▁फ्लोरिडा	-8682
तिन	-8683
ूल्य	-8684
ोरेट	-8685
▁दुः	-8686
▁पवन	-8687
▁इजरा	-8688
▁डाली	-8689
▁भूमिगत	-8690
▁पंजीकृत	-8691
▁शाब्दिक	-8692
▁विवादास्पद	-8693
जग	-8694
सेनी	-8695
▁नोक	-8696
▁बहने	-8697
▁असमिया	-8698
▁पहचाना	-8699
▁एयरपोर्ट	-8700
▁श्रद्धाल	-8701
▁पर्यावरणीय	-8702
▁विक्टोरिया	-8703
▁Pr	-8704
▁बहुल	-8705
▁मारी	-8706
▁सिलस	-8707
▁India	-8708
▁राजीव	-8709
▁आंकड़े	-8710
▁पूर्णतः	-8711
▁यहूदियों	-8712
▁रिकॉर्डिंग	-8713
कीन	-8714
▁179	-8715
▁बसने	-8716
▁औरैया	-8717
▁कामया	-8718
सिंगपुर	-8719
ank	-8720
▁74	-8721
▁देन	-8722
▁सैय	-8723
▁खंडों	-8724
▁गद्दी	-8725
▁चढ़ाई	-8726
▁पेटेंट	-8727
66	-8728
श्त	-8729
आईवी	-8730
▁निस	-8731
▁नीले	-8732
ations	-8733
▁संगणक	-8734
▁प्रख्यात	-8735
57	-8736
ीर	-8737
याँ	-8738
▁जेर	-8739
▁शार	-8740
▁रावण	-8741
▁दिखने	-8742
▁बेहतरीन	-8743
▁उत्पादित	-8744
▁क्रान्तिक	-8745
ंदगी	-8746
▁बाण	-8747
▁रोब	-8748
▁बांस	-8749
▁करेगी	-8750
▁घूर्ण	-8751
▁जरिये	-8752
▁वृद्ध	-8753
ॉइड	-8754
म्बल	-8755
▁तोप	-8756
▁फिट	-8757
म्बिया	-8758
▁भाषाओँ	-8759
▁श्रद्धा	-8760
▁अछ	-8761
वकों	-8762
▁वाज	-8763
▁शिका	-8764
▁क्रिस्टल	-8765
महल	-8766
ेता	-8767
▁शव	-8768
पोषण	-8769
▁घाव	-8770
▁रेशम	-8771
▁मत्स्य	-8772
▁सम्पर्क	-8773
▁प्रांतीय	-8774
▁मध्यप्रदेश	-8775
oad	-8776
▁88	-8777
▁1951	-8778
▁रूचि	-8779
▁युक्ति	-8780
▁चन्दौली	-8781
▁प्रवृत्त	-8782
वर्तन	-8783
▁पढ़ा	-8784
▁पीछा	-8785
▁भावी	-8786
▁पूर्वा	-8787
▁राजकुमारी	-8788
se	-8789
▁160	-8790
▁आदान	-8791
▁परिवेश	-8792
▁उत्प्रे	-8793
▁कीं	-8794
▁फिन	-8795
शिक्ष	-8796
▁प्रमे	-8797
▁आर्द्र	-8798
▁पूर्णिमा	-8799
ोलियन	-8800
▁धीमी	-8801
▁नाना	-8802
ऑक्साइड	-8803
▁क्रेडिट	-8804
▁सम्बद्ध	-8805
▁एडिन	-8806
▁गायब	-8807
▁मुँह	-8808
▁वाणी	-8809
▁कुष्ठ	-8810
▁सशक्त	-8811
▁भेदभाव	-8812
▁बहुसंख्यक	-8813
▁सिद्धार्थनगर	-8814
वह	-8815
▁शू	-8816
▁बिस्म	-8817
▁बेचने	-8818
िलासपुर	-8819
▁डार	-8820
▁शेख	-8821
▁अस्थिर	-8822
▁ग्रस्त	-8823
▁त्रिभु	-8824
शित	-8825
▁तैर	-8826
फील्ड	-8827
भारतीय	-8828
▁राक्ष	-8829
▁व्यापारियों	-8830
व्	-8831
▁रिंग	-8832
▁पंद्र	-8833
▁औपनिवेशिक	-8834
भाषी	-8835
▁केस	-8836
▁कांगो	-8837
▁दर्शक	-8838
▁यॉर्क	-8839
▁द्विवेदी	-8840
▁धाम	-8841
▁गायन	-8842
▁गौरी	-8843
▁नर्मदा	-8844
शिव	-8845
▁घेर	-8846
ेलिया	-8847
▁कार्	-8848
▁प्रसंग	-8849
▁उत्तरार्ध	-8850
धिर	-8851
बर्	-8852
▁खपत	-8853
▁तने	-8854
▁राइफल	-8855
▁नाटकीय	-8856
▁विक्रे	-8857
हरण	-8858
▁जन्	-8859
▁1953	-8860
▁परमा	-8861
▁मुंह	-8862
षित	-8863
▁ढल	-8864
प्ताह	-8865
▁उद्गम	-8866
▁युग्म	-8867
▁रिसर्च	-8868
▁जगन्नाथ	-8869
▁आतंकवादी	-8870
,,	-8871
थिल	-8872
▁माई	-8873
▁दोषी	-8874
▁कारखाने	-8875
▁स्वदेशी	-8876
▁आत्महत्या	-8877
सुर	-8878
वेली	-8879
ानंद	-8880
▁फ़ी	-8881
▁उन्होनें	-8882
ack	-8883
ide	-8884
▁धूल	-8885
टिल्य	-8886
▁पीले	-8887
▁एक्सचेंज	-8888
▁सदर	-8889
3°	-8890
ल्ले	-8891
▁जागीर	-8892
▁सिपाह	-8893
▁एचआईवी	-8894
कार्बनिक	-8895
▁लोकतांत्रिक	-8896
विच	-8897
ुदा	-8898
▁असंत	-8899
▁विनो	-8900
▁युनाइटेड	-8901
टेन	-8902
ेटर	-8903
▁sh	-8904
▁अपश	-8905
▁फंड	-8906
▁रेंज	-8907
▁टुकड़े	-8908
cl	-8909
▁44	-8910
ायिक	-8911
▁धनी	-8912
▁रेस	-8913
विकास	-8914
▁1959	-8915
आधारित	-8916
▁गिरने	-8917
कारियों	-8918
▁27°53′	-8919
▁संख्याओं	-8920
100	-8921
ेनी	-8922
ोरे	-8923
्डी	-8924
र्डर	-8925
चयिता	-8926
▁प्रास	-8927
टान	-8928
न्ने	-8929
र्तित	-8930
▁अण्ड	-8931
▁आरक्षित	-8932
▁श्रीराम	-8933
▁अनिश्चित	-8934
िपल	-8935
कारक	-8936
▁बला	-8937
▁वैन	-8938
▁एकदम	-8939
▁भाषाई	-8940
▁रोकथाम	-8941
▁शस्त्र	-8942
▁शिकागो	-8943
,"	-8944
खम	-8945
▁आजाद	-8946
▁जगत्	-8947
▁शिक्षित	-8948
▁बेल्जियम	-8949
▁लड़कियों	-8950
▁पारिस्थितिकी	-8951
ave	-8952
शिला	-8953
▁हार्ट	-8954
▁हस्तांत	-8955
उल	-8956
डिंग	-8957
▁साझ	-8958
▁मेजर	-8959
▁ऊतकों	-8960
▁बनारस	-8961
▁सेनापति	-8962
▁महामायानगर	-8963
▁एंट	-8964
पुरुष	-8965
▁कर्क	-8966
▁सरोवर	-8967
▁व्यायाम	-8968
हू	-8969
▁छू	-8970
बार्	-8971
▁ढाँ	-8972
▁बैक	-8973
▁पौधा	-8974
▁बदौन	-8975
▁गुलाब	-8976
▁कहानियाँ	-8977
▁उत्तरदायी	-8978
▁पत्रिकाओं	-8979
ेरा	-8980
▁1937	-8981
▁78.06	-8982
▁थिएटर	-8983
▁78°04′	-8984
▁नेपोलियन	-8985
ha	-8986
ैप	-8987
बोन	-8988
ायटी	-8989
▁भोग	-8990
▁नित्य	-8991
▁78.06°	-8992
▁मंगोलिया	-8993
▁प्रतिबंधित	-8994
विर	-8995
ल्फ़	-8996
▁उपज़	-8997
▁27.89;	-8998
▁27.89°	-8999
▁क्लोराइड	-9000
▁बृहस्पति	-9001
▁विद्यार्थियों	-9002
te	-9003
ंगर	-9004
खाव	-9005
▁सभ्य	-9006
▁ब्रॉड	-9007
बस	-9008
▁नाक	-9009
▁चक्कर	-9010
ere	-9011
▁रेत	-9012
▁स्ने	-9013
▁दक्षता	-9014
▁अनुप्रयोगों	-9015
▁52	-9016
▁काच	-9017
▁बगी	-9018
▁मुकाबला	-9019
आइ	-9020
टु	-9021
क्ज	-9022
▁उतनी	-9023
▁गुला	-9024
नेस्को	-9025
▁घूमने	-9026
’’	-9027
ेल्स	-9028
▁पिर	-9029
▁फेड	-9030
▁बिट	-9031
▁सूखे	-9032
▁कितने	-9033
▁अनुमोद	-9034
▁विद्वान्	-9035
▁ब्राह्मणों	-9036
▁राष्ट्रमंडल	-9037
न्ता	-9038
▁ढूं	-9039
▁यूक	-9040
ज्जित	-9041
▁वस्तुएँ	-9042
▁सिपाहियों	-9043
hen	-9044
port	-9045
▁समू	-9046
▁बादल	-9047
▁मालूम	-9048
▁हरदोइ	-9049
निस	-9050
▁भगत	-9051
▁1900	-9052
▁1935	-9053
▁दावे	-9054
▁होली	-9055
▁टेक्न	-9056
▁भांति	-9057
▁हथियारों	-9058
▁फि	-9059
हाउस	-9060
्यूल	-9061
▁कपास	-9062
▁सुनी	-9063
▁टेनिस	-9064
▁बहरैच	-9065
▁हज़ार	-9066
▁बाइबिल	-9067
▁शान्ति	-9068
▁कौशम्बी	-9069
▁मुझफ्फरनगर	-9070
▁उपे	-9071
▁रॉय	-9072
▁अनुदान	-9073
▁कुश्ती	-9074
▁ग्यारह	-9075
▁स्पेनिश	-9076
▁संवेदनशील	-9077
वालों	-9078
▁घटित	-9079
कृतियों	-9080
▁महासभा	-9081
ड़न	-9082
▁यूनिक	-9083
▁उत्पादक	-9084
▁साधारणतया	-9085
▁प्राथमिकता	-9086
▁मार्गदर्शन	-9087
▁सुप्रसिद्ध	-9088
चौ	-9089
-10	-9090
मेट	-9091
▁इंगित	-9092
▁ताजिक	-9093
▁मध्यकालीन	-9094
ult	-9095
▁पिल	-9096
▁तिहाई	-9097
▁सिर्फ़	-9098
▁बाराबांकी	-9099
रीज़	-9100
ान्स	-9101
▁लंका	-9102
▁लाइट	-9103
▁जन्मे	-9104
▁गतिशील	-9105
▁प्राकृत	-9106
▁फाउंडेशन	-9107
ादे	-9108
▁सॉ	-9109
िस्को	-9110
▁वाहक	-9111
▁सोसायटी	-9112
▁बियर	-9113
▁ध्रुवीय	-9114
▁प्रगतिशील	-9115
श्यप	-9116
िलिंग	-9117
▁पाती	-9118
▁महानगर	-9119
▁राजस्थानी	-9120
र्सी	-9121
▁डिक	-9122
▁हंस	-9123
▁हर्ष	-9124
▁रॉकेट	-9125
▁पर्याय	-9126
▁कालांतर	-9127
▁मछलियों	-9128
▁महिलाएं	-9129
▁रोशनी	-9130
▁गुर्दे	-9131
बाय	-9132
▁आदर	-9133
▁जोग	-9134
▁डाई	-9135
▁मॉर	-9136
नीतिक	-9137
▁महास	-9138
▁डबल्यू	-9139
▁विश्‍व	-9140
▁वर्णमाला	-9141
▁कंस	-9142
जुर्ग	-9143
▁समाधि	-9144
▁स्वाधीन	-9145
हारा	-9146
▁धूप	-9147
▁पाली	-9148
▁जयंती	-9149
चालक	-9150
्मीर	-9151
ुल्ला	-9152
▁तारीख	-9153
टने	-9154
नेड	-9155
पंथ	-9156
▁ढ़	-9157
▁रोज़	-9158
▁रचयिता	-9159
▁पीएच	-9160
▁बीजा	-9161
▁हुयी	-9162
▁गुलाम	-9163
▁जमींद	-9164
परक	-9165
▁पतली	-9166
▁यकृत	-9167
▁शहीद	-9168
▁आक्सीजन	-9169
्‍त	-9170
ाँसी	-9171
▁image	-9172
▁सिक्के	-9173
▁अटलांटिक	-9174
▁भूमिकाओं	-9175
सब	-9176
ुलित	-9177
ोगरा	-9178
▁मधुर	-9179
▁संश्लेषण	-9180
ys	-9181
ैंट	-9182
▁निः	-9183
▁मेजब	-9184
▁स्वरुप	-9185
▁हार्मोन	-9186
▁नरेन्द्र	-9187
पुण	-9188
ीयर	-9189
°51′	-9190
बड़े	-9191
मर्श	-9192
▁अनू	-9193
▁दीक्षा	-9194
ाम्ब	-9195
▁कैब	-9196
▁कृपा	-9197
▁आक्साइड	-9198
▁ऑपरेटिंग	-9199
▁बल्लेबाज	-9200
▁43	-9201
▁थिये	-9202
▁उष्मा	-9203
▁अपनाने	-9204
▁प्रतिपादित	-9205
ेली	-9206
्यूम	-9207
▁छठी	-9208
▁सहन	-9209
▁पितृ	-9210
▁आत्मक	-9211
▁पुरूष	-9212
ाल्	-9213
▁डू	-9214
▁1932	-9215
▁भण्ड	-9216
▁कोच्च	-9217
▁नजदीक	-9218
▁पैटर्न	-9219
▁स्तरीय	-9220
▁प्रांतों	-9221
▁Un	-9222
▁कथ	-9223
पट्ट	-9224
▁नज़	-9225
ियर्स	-9226
▁ऊंचे	-9227
▁कार्तिक	-9228
▁परीक्षणों	-9229
.5%	-9230
▁साई	-9231
ond	-9232
वाट	-9233
प्रो	-9234
▁बजाए	-9235
▁उपभोग	-9236
▁कौटिल्य	-9237
▁हरिद्वार	-9238
▁मंत्रियों	-9239
फो	-9240
ृश	-9241
अपने	-9242
▁गोपी	-9243
▁उपहार	-9244
▁बर्लिन	-9245
▁प्रविष्ट	-9246
ढा	-9247
▁पाउ	-9248
▁दस्त	-9249
▁भरपूर	-9250
▁बुजुर्ग	-9251
68	-9252
तृ	-9253
mer	-9254
ाइस	-9255
ेज़	-9256
राइट	-9257
रेटर	-9258
▁177	-9259
▁फौज	-9260
▁बस्त	-9261
▁अणुओं	-9262
▁कच्चे	-9263
▁चौड़ी	-9264
▁धूम्रपान	-9265
फ़र	-9266
ाइप	-9267
फ़्त	-9268
▁भली	-9269
▁मकान	-9270
▁एश	-9271
ण्डित	-9272
▁चोरी	-9273
▁शिरा	-9274
▁सौंपा	-9275
▁स्पेक्ट्रम	-9276
संचार	-9277
▁1931	-9278
00,000	-9279
▁लद्दा	-9280
▁साइंस	-9281
▁मशीनों	-9282
pr	-9283
▁तैनात	-9284
▁महाद्वीपीय	-9285
पालन	-9286
▁डिस	-9287
▁क्षरण	-9288
▁कार्टून	-9289
स्के	-9290
्तनत	-9291
▁दाख	-9292
▁मेज	-9293
▁आघात	-9294
▁कथान	-9295
▁आज़ाद	-9296
▁क्रोध	-9297
▁मार्गों	-9298
▁कूप	-9299
▁सना	-9300
▁कोमल	-9301
▁खरीदने	-9302
▁प्रकारों	-9303
▁नक	-9304
▁मेम	-9305
▁सावर	-9306
▁पोलैंड	-9307
▁समुचित	-9308
▁कालीन	-9309
▁जर्नल	-9310
▁प्रोड	-9311
▁सुनाई	-9312
प्ताहिक	-9313
▁इकट्ठा	-9314
▁निकलकर	-9315
▁मंजूरी	-9316
▁उन्नीसवीं	-9317
▁‘‘	-9318
बारा	-9319
▁प्य	-9320
▁अंडा	-9321
▁धनुष	-9322
▁नींद	-9323
▁निकोबार	-9324
▁विमानों	-9325
शेर	-9326
▁ट्रा	-9327
▁लेजर	-9328
▁समाय	-9329
▁टेलीफोन	-9330
ंकृत	-9331
चिरा	-9332
▁काॅ	-9333
▁रिट	-9334
ालिया	-9335
▁भरने	-9336
▁विश्वनाथ	-9337
▁भविष्यवाणी	-9338
▁विशेषज्ञों	-9339
रन	-9340
जंग	-9341
▁बाबर	-9342
▁मोती	-9343
ेदिक	-9344
▁लिय	-9345
▁डॉक्ट	-9346
▁वर्षो	-9347
▁कोलेस्ट्र	-9348
दिव	-9349
बरे	-9350
ज़ार	-9351
▁अवत	-9352
▁दाद	-9353
नुसार	-9354
▁कोने	-9355
▁संकु	-9356
सिल	-9357
ount	-9358
▁इधर	-9359
▁अंतः	-9360
▁माधव	-9361
▁मूवी	-9362
केश्वर	-9363
▁ब्रेक	-9364
▁भाष्य	-9365
▁निर्वाह	-9366
▁तारामंडल	-9367
ोस्ट	-9368
ोहित	-9369
▁1927	-9370
▁क़ब्	-9371
▁जबलपुर	-9372
ार्ग	-9373
▁मिठ	-9374
▁नाभिक	-9375
▁जीवविज्ञान	-9376
▁घने	-9377
▁रेन	-9378
▁पाना	-9379
▁कारों	-9380
▁संकलित	-9381
▁परिचालन	-9382
▁रघु	-9383
▁एलबम	-9384
▁कमान	-9385
▁गिरि	-9386
▁संजय	-9387
▁एप्पल	-9388
▁जिनको	-9389
▁श्रीम	-9390
चिकित्स	-9391
▁प्रतिकूल	-9392
▁95	-9393
▁अजय	-9394
▁ताँ	-9395
▁सत्याग्रह	-9396
टलर	-9397
▁मले	-9398
▁अनुकरण	-9399
कोन	-9400
ुत्	-9401
▁ठहर	-9402
▁इक्व	-9403
▁आयरिश	-9404
▁समापन	-9405
▁उद्धृत	-9406
ौला	-9407
डीज़	-9408
▁नौका	-9409
▁पुर्ण	-9410
▁रिश्त	-9411
▁विराज	-9412
्रेनिया	-9413
▁प्रजातियां	-9414
▁विद्यालयों	-9415
भ्रंश	-9416
शुल्क	-9417
▁उनपर	-9418
▁सूरत	-9419
▁आँखों	-9420
▁प्रवेशद्वार	-9421
ther	-9422
▁दूत	-9423
▁पैग	-9424
▁वरु	-9425
pload	-9426
▁मरम्मत	-9427
▁चित्रकला	-9428
टीपी	-9429
▁नैन	-9430
▁ट्रॉ	-9431
▁संतु	-9432
▁25°09′	-9433
▁मैदानी	-9434
▁सम्भावना	-9435
▁मं	-9436
▁मों	-9437
▁लिट	-9438
▁श्रो	-9439
▁कॉम्प	-9440
▁निवार	-9441
▁स्टील	-9442
▁25.15;	-9443
▁25.15°	-9444
▁कीर्ति	-9445
▁इराक	-9446
▁नाते	-9447
▁कराता	-9448
▁25°27′	-9449
▁विन्यास	-9450
प्रे	-9451
▁एले	-9452
▁गाना	-9453
▁द्रो	-9454
▁पैरा	-9455
▁बंबई	-9456
▁सूरी	-9457
▁पारसी	-9458
▁रूपरेखा	-9459
ok	-9460
49′	-9461
▁क्षै	-9462
ढ़ियों	-9463
प्रयाग	-9464
▁कमीशन	-9465
▁खलीफा	-9466
▁ऑक्साइड	-9467
▁हाव	-9468
▁1924	-9469
ld	-9470
इंट	-9471
▁इश	-9472
क्षमता	-9473
▁25.45;	-9474
▁25.45°	-9475
▁नगरपालिका	-9476
कोष	-9477
▁अंद	-9478
▁झलक	-9479
▁ग्लोबल	-9480
▁पुत्रों	-9481
▁ब्रजभाषा	-9482
▁शंकराचार्य	-9483
ूला	-9484
न्हा	-9485
जातीय	-9486
▁आर्कि	-9487
▁गेहूँ	-9488
▁पुराता	-9489
▁इंजीनियरी	-9490
ark	-9491
केशन	-9492
▁टाई	-9493
▁Upload	-9494
▁जनसांख्य	-9495
▁आक	-9496
गिरी	-9497
रखाव	-9498
म्बाब	-9499
▁क्री	-9500
▁श्रमिकों	-9501
ाजनक	-9502
▁मॉन	-9503
▁81.85	-9504
▁जिसपर	-9505
▁81.85°	-9506
▁81°51′	-9507
▁आत्मकथा	-9508
▁सुधारों	-9509
टका	-9510
ॉक्स	-9511
▁अरबों	-9512
▁पत्ते	-9513
▁सल्तनत	-9514
▁मेजबानी	-9515
▁राजभाषा	-9516
मास	-9517
ौदा	-9518
▁बोले	-9519
▁संगत	-9520
▁अक्षय	-9521
ोफ्रेनिया	-9522
▁कार्यवाही	-9523
▁अनि	-9524
▁क्षण	-9525
▁पीला	-9526
प्रधान	-9527
▁शिमला	-9528
▁बंगलुरु	-9529
▁यंत्रों	-9530
▁परंपराओं	-9531
▁मूर्तियों	-9532
▁आंब	-9533
▁उसपर	-9534
▁लायक	-9535
ाजीपुर	-9536
▁गिनती	-9537
▁दोहरा	-9538
▁भाग्य	-9539
▁दुबारा	-9540
▁राजदूत	-9541
ft	-9542
डेन	-9543
वित	-9544
▁स्ल	-9545
स्टोन	-9546
ृत्ता	-9547
▁हराकर	-9548
▁उपायों	-9549
तट	-9550
▁सिस	-9551
र्जित	-9552
▁पालतू	-9553
▁अनुशासन	-9554
▁अन्‍	-9555
▁गुज़र	-9556
▁क़ानून	-9557
les	-9558
ेलो	-9559
▁en	-9560
▁मलय	-9561
▁यूके	-9562
▁विषम	-9563
▁नॉर्थ	-9564
▁बहुता	-9565
डीज	-9566
▁मला	-9567
▁मिड	-9568
रेक्ट	-9569
▁ज्ये	-9570
िकियों	-9571
▁66	-9572
राइल	-9573
सैनिक	-9574
▁हजरत	-9575
▁हांग	-9576
▁हिमन	-9577
▁पूर्ववर्ती	-9578
विष	-9579
▁59	-9580
िंगर	-9581
▁अभिकल	-9582
▁कोयंब	-9583
▁निंदा	-9584
▁सांद्र	-9585
▁कानूनों	-9586
▁प्रेमचंद	-9587
▁सिद्धान्तों	-9588
ंबा	-9589
▁कंध	-9590
▁क्य	-9591
▁मदन	-9592
▁कहाँ	-9593
▁टेलर	-9594
▁सराह	-9595
▁धर्मा	-9596
▁भवनों	-9597
प्रणाली	-9598
▁परास्त	-9599
▁शूटिंग	-9600
▁कछ	-9601
▁मेस	-9602
▁शोक	-9603
▁एजेंस	-9604
▁पीड़ा	-9605
▁बर्फ़	-9606
▁निष्का	-9607
▁पुरातन	-9608
2;	-9609
ढी	-9610
ोवा	-9611
▁शर	-9612
▁24°	-9613
▁अबू	-9614
▁मोम	-9615
▁सुदृ	-9616
▁सुनकर	-9617
▁अधिकृत	-9618
▁निर्णायक	-9619
▁आकलन	-9620
▁सेनानी	-9621
▁आक्रामक	-9622
▁नामांकित	-9623
BC	-9624
to	-9625
बेल	-9626
पिंग	-9627
▁एनी	-9628
▁चिल	-9629
▁सवार	-9630
▁सिखा	-9631
▁शाखाएँ	-9632
▁संरचनाओं	-9633
uk	-9634
गै	-9635
िआ	-9636
00′	-9637
▁71	-9638
स्टा	-9639
▁नियत	-9640
मूर्ति	-9641
▁खुदरा	-9642
▁नजदीकी	-9643
▁परिपक्व	-9644
▁श्रंखला	-9645
▁अफ़्रीकी	-9646
▁उत्तीर्ण	-9647
▁स्टेशनों	-9648
▁एनिम	-9649
▁पुण्य	-9650
▁अलंकार	-9651
▁प्रमेय	-9652
▁मानसून	-9653
▁प्रवासी	-9654
lic	-9655
धाम	-9656
बिट	-9657
ाराम	-9658
▁सावरकर	-9659
प्रद	-9660
्वान	-9661
▁सला	-9662
▁लेंस	-9663
▁अभिन्न	-9664
▁देखरेख	-9665
▁टो	-9666
-200	-9667
जनरल	-9668
▁सोचा	-9669
▁जनजात	-9670
▁अर्द्ध	-9671
▁पब्लिक	-9672
▁सम्बंध	-9673
▁एडिनबर्ग	-9674
▁रेजीमेंट	-9675
अम	-9676
चिव	-9677
ुल्य	-9678
▁खारिज	-9679
▁भाइयों	-9680
▁परम्परागत	-9681
▁गिट	-9682
फॉर्म	-9683
श्चात्	-9684
▁झीलों	-9685
▁दिखता	-9686
▁अनुयायियों	-9687
िशन	-9688
▁चेक	-9689
▁शैव	-9690
▁जंतु	-9691
▁सम्भ	-9692
▁घटकों	-9693
▁हड्डी	-9694
▁अवशोषण	-9695
▁जोड़कर	-9696
▁द्रविड़	-9697
बीर	-9698
▁06	-9699
भक्त	-9700
शंकर	-9701
▁इनमे	-9702
▁अनुयाई	-9703
▁जिन्ना	-9704
▁डेटाबेस	-9705
पंच	-9706
ोदर	-9707
▁चिट्	-9708
स्वामी	-9709
▁गानों	-9710
▁खिलाफ़	-9711
▁जंतुओं	-9712
▁गुरुद्व	-9713
▁प्रतिस्थापित	-9714
ire	-9715
▁षड	-9716
ज़ाख़	-9717
▁1918	-9718
▁पहना	-9719
▁बताने	-9720
▁शैलियों	-9721
यना	-9722
ग्रे	-9723
▁हुम	-9724
▁पैके	-9725
orm	-9726
ंजक	-9727
ेतन	-9728
▁फो	-9729
▁काय	-9730
▁आयाम	-9731
▁गैसों	-9732
▁जोसेफ	-9733
▁डिवीजन	-9734
▁दीक्षित	-9735
नास	-9736
वाहक	-9737
▁दया	-9738
▁मोड	-9739
र्घ्य	-9740
विन्द	-9741
▁क्रॉस	-9742
▁मिलान	-9743
▁व्यंग्य	-9744
▁साप्ताहिक	-9745
▁पुनर्निर्माण	-9746
ics	-9747
र्दन	-9748
▁दां	-9749
▁बिख	-9750
▁शतक	-9751
▁फ्ले	-9752
▁साफ़	-9753
▁जिब्र	-9754
▁स्वप्न	-9755
▁अनंतपुर	-9756
▁प्रदर्शनी	-9757
▁राजेन्द्र	-9758
ोलि	-9759
न्ती	-9760
▁मिर	-9761
▁वरन्	-9762
▁उज्जैन	-9763
▁निकटता	-9764
▁उपरान्त	-9765
▁समर्थकों	-9766
▁प्रोग्रामिंग	-9767
ब्ध	-9768
▁6.	-9769
▁पेज	-9770
▁सिम	-9771
शुराम	-9772
▁1917	-9773
▁आमेर	-9774
▁रोका	-9775
▁आलोचक	-9776
▁मीनार	-9777
▁बीबीसी	-9778
▁संप्रभु	-9779
▁तत्पश्चात्	-9780
सात	-9781
निवास	-9782
▁काँग	-9783
तिज	-9784
वेर	-9785
न्यू	-9786
बूती	-9787
▁अनो	-9788
वियों	-9789
▁1922	-9790
▁आयतन	-9791
स्तरीय	-9792
▁प्रामाणिक	-9793
जिस	-9794
घरों	-9795
विता	-9796
स्फ़	-9797
▁टूर	-9798
▁फलन	-9799
दक्षिण	-9800
▁इलेक्ट्रान	-9801
बिन	-9802
ंडलीय	-9803
▁1929	-9804
▁डेवल	-9805
▁बनना	-9806
▁मोटी	-9807
▁कीटों	-9808
▁पूँजी	-9809
विश्वास	-9810
▁तरंगों	-9811
▁नेटवर्	-9812
▁व्हाइट	-9813
▁क्षत्रिय	-9814
aj	-9815
ूज	-9816
मिंग	-9817
ोपीय	-9818
▁मध्ययुग	-9819
▁छे	-9820
राजा	-9821
▁can	-9822
▁आधी	-9823
▁शीतल	-9824
▁प्राप	-9825
▁निभाया	-9826
▁मुखर्जी	-9827
▁प्रतिनिधियों	-9828
▁यी	-9829
कांत	-9830
र्षण	-9831
▁गोड	-9832
▁मौल	-9833
▁सैम	-9834
▁समकक्ष	-9835
▁प्रस्तुति	-9836
कोर	-9837
ीदा	-9838
▁IS	-9839
गीता	-9840
जन्य	-9841
मानी	-9842
रेपी	-9843
▁पादप	-9844
तुर	-9845
यंस	-9846
रां	-9847
▁बीटा	-9848
▁सोलह	-9849
▁बच्चन	-9850
▁रूढ़ि	-9851
▁वियतनाम	-9852
ौं	-9853
ुसार	-9854
▁एफ़	-9855
▁बढा	-9856
▁हालत	-9857
▁उजागर	-9858
▁मल्टी	-9859
▁पुनराव	-9860
▁मुजफ्फर	-9861
बियाई	-9862
▁केबल	-9863
▁बुंद	-9864
▁मिया	-9865
▁सँ	-9866
▁गुप	-9867
▁हसन	-9868
िनेंट	-9869
▁बोला	-9870
▁फ्रेड	-9871
▁ग्रैंड	-9872
▁ठहराया	-9873
▁पर्यवे	-9874
ron	-9875
ज़ाम	-9876
▁तूफान	-9877
▁ब्याज	-9878
▁स्तूप	-9879
्रूखाबाद	-9880
▁बहुतायत	-9881
▁सहयोगियों	-9882
धुनिक	-9883
ाज़ील	-9884
▁मैग्	-9885
▁जलप्र	-9886
▁निकली	-9887
▁सामुद	-9888
%,	-9889
कण	-9890
वत्	-9891
ोग्ल	-9892
▁छुप	-9893
▁जुट	-9894
▁नाद	-9895
▁कुंभ	-9896
▁जीती	-9897
▁कोयले	-9898
▁ज्वार	-9899
▁ट्यूब	-9900
▁स्पेस	-9901
▁अटसेनी	-9902
▁प्रतिबद्ध	-9903
ंगत	-9904
यनगर	-9905
सन्द	-9906
▁अद्य	-9907
▁कारी	-9908
▁चीजों	-9909
▁देंगे	-9910
▁बच्चा	-9911
▁इथियोप	-9912
▁मान्यताओं	-9913
85	-9914
बड़ी	-9915
▁लेबल	-9916
▁धरातल	-9917
▁सुनने	-9918
▁किरणों	-9919
▁भक्तों	-9920
▁व्याप्त	-9921
▁अनुपस्थिति	-9922
ोआ	-9923
बासाह	-9924
▁अठार	-9925
▁चिम्प	-9926
चिरापल्ली	-9927
▁समानांतर	-9928
24′	-9929
▁प्रक	-9930
▁असंभव	-9931
▁ख़िला	-9932
▁लिखना	-9933
▁अपशिष्ट	-9934
▁ज्यामिति	-9935
▁व्यंजनों	-9936
▁चक्रवर्ती	-9937
साल	-9938
▁pl	-9939
▁अपघ	-9940
▁गोम	-9941
▁प्रभ	-9942
▁स्थिरता	-9943
▁अलाउद्दीन	-9944
▁एनबीसी	-9945
▁मुक्के	-9946
▁परशुराम	-9947
▁पुरस्कारों	-9948
च्‍	-9949
बीएस	-9950
▁कौर	-9951
▁डैन	-9952
ोलनों	-9953
▁अंगू	-9954
▁चौदह	-9955
▁दन्त	-9956
▁पूरक	-9957
▁ऑस्ट्रिया	-9958
▁?	-9959
फेस	-9960
▁ई॰	-9961
मापी	-9962
वाहन	-9963
▁उपस	-9964
▁घटा	-9965
▁फीस	-9966
▁1925	-9967
▁1944	-9968
▁एड्स	-9969
▁एरिक	-9970
▁पंचम	-9971
▁अलगाव	-9972
▁पोर्टलैंड	-9973
▁धान	-9974
फार्म	-9975
▁अफ़्	-9976
▁सम्राट्	-9977
▁पान	-9978
▁रवी	-9979
▁सिड	-9980
कुमार	-9981
▁कहती	-9982
▁आजीवन	-9983
▁फ़ाइल	-9984
▁अवयवों	-9985
▁घूर्णन	-9986
धातु	-9987
▁घड़ी	-9988
▁फोटो	-9989
▁रिज़	-9990
▁वनडे	-9991
▁संकाय	-9992
▁सिखों	-9993
▁स्‍था	-9994
▁सर्वथा	-9995
ोंस	-9996
निवार	-9997
स्ट्री	-9998
▁मुखिया	-9999
▁इस्तीफा	-10000
जाल	-10001
▁दोप	-10002
▁धोखा	-10003
▁विवेक	-10004
▁नॉर्वे	-10005
▁पसंदीदा	-10006
▁उपग्रहों	-10007
▁मंत्रिमंडल	-10008
aw	-10009
परि	-10010
▁एं	-10011
क्कन	-10012
पाही	-10013
▁वरुण	-10014
▁बर्तन	-10015
▁रेस्त	-10016
▁विंडोज	-10017
▁काउंसिल	-10018
▁गोलाकार	-10019
कुछ	-10020
ुरत	-10021
▁05	-10022
▁घिर	-10023
्यूरो	-10024
▁जलीय	-10025
▁लेखांकन	-10026
▁विचित्र	-10027
▁शोधकर्ताओं	-10028
जारी	-10029
▁---	-10030
र्नूल	-10031
▁सुलभ	-10032
▁फॉर्म	-10033
▁ब्रिज	-10034
▁विधाय	-10035
▁आधारभूत	-10036
▁le	-10037
लेखन	-10038
ौकिक	-10039
▁सिन	-10040
▁सहारे	-10041
,0	-10042
उड	-10043
▁तन	-10044
▁बघ	-10045
िस्म	-10046
▁कॉन्	-10047
▁हिरण	-10048
विरोधी	-10049
ादित्य	-10050
▁बदलते	-10051
▁प्रिंट	-10052
▁सुन्नी	-10053
▁भूतपूर्व	-10054
शाक	-10055
▁07	-10056
बंदी	-10057
ब्बी	-10058
ाल्ड	-10059
▁भूप	-10060
▁मरण	-10061
▁चाचा	-10062
▁ब्रित	-10063
▁जूनियर	-10064
▁दोबारा	-10065
▁पाठकों	-10066
ेला	-10067
मनगर	-10068
▁आशय	-10069
▁पचास	-10070
▁फ़ोन	-10071
▁आशंका	-10072
▁यन्त्र	-10073
▁अध्यापक	-10074
▁कुष्ठरोग	-10075
खान	-10076
पनों	-10077
▁केर	-10078
▁पीप	-10079
र्भाव	-10080
स्टेड	-10081
▁सदृश	-10082
ब्रह्म	-10083
▁बालों	-10084
निर्मित	-10085
▁क्वांट	-10086
▁इमारतें	-10087
▁कोलेस्ट्रॉल	-10088
▁68	-10089
▁कत	-10090
▁शत	-10091
▁1905	-10092
▁अल्फ	-10093
▁उद्भव	-10094
▁तपेदिक	-10095
▁संचिका	-10096
▁अनुष्ठान	-10097
संगत	-10098
▁कंब	-10099
म्बली	-10100
▁आपदा	-10101
▁गिना	-10102
▁नामी	-10103
▁गिलगित	-10104
▁मेघालय	-10105
▁न्यूट्र	-10106
▁इंस्टीट्यूट	-10107
पय	-10108
टीसी	-10109
▁आशी	-10110
▁बुश	-10111
त्तों	-10112
▁3000	-10113
▁this	-10114
▁इंस्ट	-10115
▁दर्पण	-10116
▁नास्त	-10117
▁बिल्ड	-10118
▁निकलते	-10119
▁पण्डित	-10120
▁बाबासाह	-10121
्ण	-10122
टेल	-10123
ेटिक	-10124
ेनिक	-10125
▁बडी	-10126
राधिक	-10127
▁टैंक	-10128
▁भाषी	-10129
▁सबके	-10130
▁श्वास	-10131
▁दिशाओं	-10132
▁गर्भाशय	-10133
▁अपेक्षित	-10134
ोच	-10135
▁सरी	-10136
ंक्षा	-10137
▁उत्‍	-10138
▁वल्लभ	-10139
▁स्वतः	-10140
▁दरवाजे	-10141
▁सिपाही	-10142
▁हॉलीवुड	-10143
एशिया	-10144
▁कुंजी	-10145
▁यूनिट	-10146
▁नक्काशी	-10147
▁विस्तारित	-10148
▁राष्ट्रवादी	-10149
▁me	-10150
▁700	-10151
▁नें	-10152
▁गुणा	-10153
▁दिमा	-10154
▁पुरा	-10155
▁पैसा	-10156
▁विशा	-10157
▁रविवार	-10158
▁कार्यान्वयन	-10159
▁पाण	-10160
▁वेध	-10161
संबंध	-10162
▁चूना	-10163
▁कराते	-10164
▁थियेटर	-10165
क्‍त	-10166
न्सी	-10167
▁झंडा	-10168
▁बनाम	-10169
▁भेड़	-10170
▁सीटें	-10171
▁अपराधी	-10172
▁सामग्र	-10173
▁समृद्धि	-10174
▁सामुदायिक	-10175
सरा	-10176
करार	-10177
▁पर्ल	-10178
▁सजीव	-10179
▁स्की	-10180
▁वायुसेना	-10181
han	-10182
िसा	-10183
लिया	-10184
▁रत्	-10185
नाल्ड	-10186
▁कमाल	-10187
▁विफलता	-10188
▁केन	-10189
▁केप	-10190
▁घुम	-10191
▁घुड़	-10192
▁ज़ोर	-10193
ार्द्ध	-10194
▁अजमेर	-10195
▁क्लास	-10196
▁राज्या	-10197
▁अनुभूति	-10198
▁कोरियाई	-10199
▁दर्शाते	-10200
▁स्वचालित	-10201
आउट	-10202
ारीय	-10203
ाहित	-10204
िकरण	-10205
▁घोल	-10206
▁वाई	-10207
▁शिष	-10208
दर्शक	-10209
▁गैलेक्सी	-10210
▁बिलासपुर	-10211
▁विशेषताएँ	-10212
▁चैंपियनशिप	-10213
पौ	-10214
▁Ph	-10215
ंगलोर	-10216
▁रोशन	-10217
ोक्रेट	-10218
▁नमूना	-10219
▁निषेध	-10220
▁केन्द्रों	-10221
pp	-10222
ाज़ा	-10223
▁सद्	-10224
स्कों	-10225
▁स्थाई	-10226
ष्‍ट्रीय	-10227
मानस	-10228
शासन	-10229
िज्म	-10230
▁झेल	-10231
▁दीन	-10232
▁दुख	-10233
▁द्य	-10234
▁कैला	-10235
▁पायल	-10236
▁मलिक	-10237
▁10,000	-10238
▁प्रेसीड	-10239
▁साम्यवादी	-10240
77	-10241
ातों	-10242
▁चिली	-10243
▁कथानक	-10244
▁केदार	-10245
▁त्वरित	-10246
▁निकाली	-10247
▁अन्वेषण	-10248
क़ी	-10249
ठित	-10250
ाहो	-10251
ुला	-10252
माता	-10253
▁ऑटो	-10254
ाल्टर	-10255
▁संचित	-10256
▁आपराधिक	-10257
AT	-10258
ांग	-10259
ौसी	-10260
िद्र	-10261
▁फर्	-10262
▁लाभदायक	-10263
▁शाहजहाँ	-10264
आती	-10265
▁निधि	-10266
▁फ़्ल	-10267
▁सफाई	-10268
▁असमान	-10269
िदास	-10270
▁गुड	-10271
▁भैर	-10272
▁राश	-10273
▁पनडु	-10274
▁बिंद	-10275
▁गिटार	-10276
▁प्रसि	-10277
▁मिथिला	-10278
▁फरीदपुर	-10279
▁सर्वत्र	-10280
▁कंपनियां	-10281
▁क्रियान्व	-10282
▁ज़्यादातर	-10283
िटन	-10284
ोरीन	-10285
ग्रेड	-10286
लांकि	-10287
▁इसमे	-10288
▁कुण्ड	-10289
▁आयुक्त	-10290
▁एक्सरे	-10291
ॅक	-10292
ater	-10293
्रमण	-10294
▁कैन	-10295
▁प्रह	-10296
▁लॉन्च	-10297
▁हिंसक	-10298
▁ब्यूरो	-10299
▁तिरुपति	-10300
▁एयरलाइंस	-10301
▁व्याख्यान	-10302
▁उदाहरणार्थ	-10303
▁सुई	-10304
▁क्रिसमस	-10305
▁निष्पादन	-10306
▁राष्ट्रमण्डल	-10307
सृ	-10308
▁फ़ै	-10309
▁साज	-10310
▁हैम	-10311
▁फैसले	-10312
▁हल्का	-10313
▁प्रहार	-10314
▁अस्पष्ट	-10315
लीला	-10316
ूर्त	-10317
▁अँग	-10318
▁टावर	-10319
▁संवेद	-10320
▁पत्तियों	-10321
▁प्रवर्तन	-10322
अनु	-10323
▁घोर	-10324
राधना	-10325
▁सेंटी	-10326
▁भंडारण	-10327
▁परिष्कृत	-10328
ओन	-10329
टू	-10330
▁53	-10331
▁कच	-10332
ूपुर	-10333
▁कति	-10334
ूसराय	-10335
▁दुःख	-10336
▁दुबई	-10337
▁छोड़ा	-10338
▁अर्थों	-10339
▁गाँवों	-10340
▁गोविंद	-10341
▁दूरबीन	-10342
▁दस्तावेज	-10343
▁सार्वभौमिक	-10344
8°	-10345
लता	-10346
▁ऐड	-10347
ंस्टर	-10348
▁लाला	-10349
▁हफ्त	-10350
▁सुरंग	-10351
▁ज्येष्ठ	-10352
▁बेगूसराय	-10353
▁1/	-10354
▁रच	-10355
▁खनन	-10356
्यूशन	-10357
▁नासा	-10358
िक्षेप	-10359
▁उस्मान	-10360
▁कैमरून	-10361
▁विद्यु	-10362
्यक	-10363
▁ऑर	-10364
▁शह	-10365
ेश्व	-10366
▁आवं	-10367
▁सेठ	-10368
▁मलेरिया	-10369
सिस	-10370
▁08	-10371
▁54	-10372
न्‍न	-10373
स्लो	-10374
▁लॉर	-10375
▁बर्न	-10376
▁आश्रित	-10377
▁क्यूबा	-10378
निरपेक्ष	-10379
ोत्प	-10380
▁आलू	-10381
▁वाट	-10382
▁अपार	-10383
▁कलां	-10384
▁दायर	-10385
ोत्तरी	-10386
▁उपक्रम	-10387
▁कस	-10388
▁पूज	-10389
▁आंखों	-10390
▁टैक्स	-10391
▁जाएंगे	-10392
▁गुरुत्व	-10393
▁आंग	-10394
▁लिव	-10395
सेक्स	-10396
▁घंटा	-10397
▁लगाई	-10398
▁ग्रिड	-10399
▁भित्त	-10400
▁विभेद	-10401
्ने	-10402
▁09	-10403
▁लची	-10404
भिषेक	-10405
रेस्ट	-10406
▁were	-10407
▁साधु	-10408
▁दोपहर	-10409
lect	-10410
कांड	-10411
च्चय	-10412
बर्न	-10413
▁महि	-10414
▁मण्ड	-10415
▁कस्बा	-10416
▁सनातन	-10417
▁कोच्चि	-10418
▁संरक्षक	-10419
▁वास्तविकता	-10420
ंटो	-10421
▁टेर	-10422
निहित	-10423
न्याय	-10424
▁सेवाएँ	-10425
▁800	-10426
धिकृत	-10427
▁तालिका	-10428
▁कैबिनेट	-10429
▁भोजपुरी	-10430
▁फार्रूखाबाद	-10431
▁As	-10432
जनों	-10433
प्ले	-10434
▁तेंद	-10435
▁मोटा	-10436
▁स्राव	-10437
▁उत्थान	-10438
▁शुरूआती	-10439
▁जिब्राल्टर	-10440
काण्ड	-10441
स्मिक	-10442
▁नानक	-10443
▁म्या	-10444
▁क्षैतिज	-10445
तूर	-10446
िल्‍	-10447
▁घंटों	-10448
▁पेशवा	-10449
▁सुदृढ़	-10450
▁चमत्कार	-10451
▁जलप्रपात	-10452
▁73	-10453
चन्द	-10454
चिका	-10455
र्वा	-10456
▁ऑटोम	-10457
▁वंचित	-10458
▁24°49′	-10459
▁परजीवी	-10460
▁विज्ञानी	-10461
▁अभिव्यक्त	-10462
▁प्रोटेस्ट	-10463
▁वायुमंडलीय	-10464
ँस	-10465
ॅल	-10466
▁’	-10467
.90	-10468
ैनी	-10469
▁बंधन	-10470
स्त्रो	-10471
▁देहांत	-10472
▁पुनर्ग	-10473
cc	-10474
ियान	-10475
्टिक	-10476
▁अनौ	-10477
न्ड्र	-10478
▁झंडे	-10479
▁समित	-10480
प्रदान	-10481
▁मुर्ग	-10482
उद	-10483
ूपी	-10484
▁67	-10485
▁मुग	-10486
▁रजत	-10487
▁फैशन	-10488
▁दुश्मन	-10489
▁क्रिप्ट	-10490
▁जीवनकाल	-10491
िनम	-10492
▁मकर	-10493
▁ऊर्ध	-10494
▁पराजय	-10495
▁सूचका	-10496
▁कुशलता	-10497
▁निरूपण	-10498
▁नैतिकता	-10499
▁प्रोजेक्ट	-10500
▁उत्परिवर्तन	-10501
low	-10502
▁pr	-10503
ोगिक	-10504
▁1941	-10505
▁24.81;	-10506
▁24.81°	-10507
▁85°00′	-10508
▁देशांतर	-10509
ध्द	-10510
▁ठे	-10511
ड़की	-10512
▁बंट	-10513
▁नवजात	-10514
▁तिरुवन	-10515
▁ध्वस्त	-10516
▁शर्तों	-10517
▁कारावास	-10518
▁सावधानी	-10519
दीना	-10520
मध्य	-10521
▁सले	-10522
धारियों	-10523
▁स्विट्	-10524
▁डाउनलोड	-10525
लत	-10526
िंट	-10527
▁थाइ	-10528
ग्रन्थ	-10529
▁कटौती	-10530
▁चांदी	-10531
▁झुकाव	-10532
▁संभाला	-10533
▁अध्यापन	-10534
▁पूर्वजों	-10535
▁पुरातात्विक	-10536
आप	-10537
िश्र	-10538
ृश्य	-10539
▁कदा	-10540
▁चिंग	-10541
▁वेने	-10542
▁निकोल	-10543
▁बदलता	-10544
▁वेस्टमि	-10545
11′	-10546
रेज	-10547
▁दुक	-10548
▁भुज	-10549
▁क्षम	-10550
मात्रा	-10551
▁दूरसंचार	-10552
56	-10553
शान	-10554
एक्स	-10555
न्नत	-10556
स्ला	-10557
▁1938	-10558
▁साहस	-10559
▁अरुणा	-10560
▁कतिपय	-10561
▁रेडिय	-10562
▁हिस्ट	-10563
▁रिश्ते	-10564
58	-10565
उर	-10566
ous	-10567
ual	-10568
र्ल	-10569
▁सेतु	-10570
▁कश्यप	-10571
▁ग्रीस	-10572
▁हिटलर	-10573
▁मेवाड़	-10574
▁शिकारी	-10575
परिवर्तन	-10576
▁ब्रितानी	-10577
रेस	-10578
▁1915	-10579
▁रोचक	-10580
▁अमीरात	-10581
▁आपेक्ष	-10582
▁परिपूर्ण	-10583
ंशी	-10584
ड़ो	-10585
समी	-10586
▁छीन	-10587
▁टेक	-10588
▁सुलझ	-10589
▁वैद्य	-10590
त्तियों	-10591
▁कैम्ब्र	-10592
▁प्रस्थान	-10593
ंगण	-10594
ंजलि	-10595
र्करा	-10596
▁1934	-10597
▁बेरी	-10598
▁स्प्र	-10599
▁गोल्डन	-10600
▁ख़िलाफ़	-10601
गुर	-10602
▁ओप	-10603
▁खां	-10604
▁दीपा	-10605
▁आभूषण	-10606
▁रेलगा	-10607
▁विधवा	-10608
खल	-10609
▁En	-10610
यानक	-10611
▁डूब	-10612
▁सूजन	-10613
▁विंडोज़	-10614
▁प्रश्नों	-10615
VD	-10616
कौ	-10617
▁रूम	-10618
▁1500	-10619
▁गोंड	-10620
▁अतिथि	-10621
▁समझना	-10622
▁क्वांटम	-10623
▁सुंदरता	-10624
▁स्थानांतरण	-10625
ree	-10626
पत्	-10627
्रोप	-10628
न्दर्य	-10629
▁कर्नूल	-10630
▁सैक्सन	-10631
▁विश्राम	-10632
▁डेनमार्क	-10633
▁सम्पत्ति	-10634
▁अकार्बनिक	-10635
▁गोक	-10636
▁हैर	-10637
ेनिया	-10638
▁संपी	-10639
ध्यापक	-10640
▁color	-10641
▁रिक्त	-10642
▁संचरण	-10643
▁मामूली	-10644
▁विचारक	-10645
▁आपेक्षिकता	-10646
विभ	-10647
म्बा	-10648
▁res	-10649
र्कों	-10650
▁गलती	-10651
▁परिच	-10652
▁डेल्टा	-10653
फेल	-10654
र्फ	-10655
रेशन	-10656
▁नवा	-10657
▁युर	-10658
▁सघन	-10659
▁पंद्रह	-10660
▁चिह्नित	-10661
ंडन	-10662
बों	-10663
▁दफ	-10664
▁नूर	-10665
▁ख़ुद	-10666
▁अपहरण	-10667
▁कर्नल	-10668
▁भूटान	-10669
▁लेनिन	-10670
▁आस्ट्रिया	-10671
▁इथियोपिया	-10672
▁विज्ञापनों	-10673
▁प्रतियोगिताओं	-10674
▁रुख	-10675
ंत्रण	-10676
ार्थक	-10677
▁1911	-10678
▁भीषण	-10679
▁नरसिंह	-10680
att	-10681
टीवी	-10682
▁पेन	-10683
ब्रिट	-10684
▁1910	-10685
▁विजयनगर	-10686
▁जानेवाले	-10687
der	-10688
बाग	-10689
▁97	-10690
स्‍त	-10691
्लोर	-10692
▁एन्	-10693
▁ऐक्ट	-10694
▁पाचन	-10695
▁फायर	-10696
▁स्वत	-10697
▁इंकार	-10698
▁थॉमसन	-10699
▁हार्डी	-10700
▁उल्लिखित	-10701
ie	-10702
नामी	-10703
ब्रू	-10704
▁एली	-10705
▁1908	-10706
▁राइट	-10707
▁सन्न	-10708
▁भावों	-10709
▁दिलाने	-10710
▁नवीनतम	-10711
▁बोलचाल	-10712
▁सातवीं	-10713
▁अध्यात्म	-10714
▁प्रतिज्ञा	-10715
act	-10716
टकर	-10717
▁पैन	-10718
▁बचत	-10719
▁मनाने	-10720
▁तीर्थंकर	-10721
▁बीमारियों	-10722
दोष	-10723
▁टोर	-10724
वाड़ी	-10725
▁निमित	-10726
▁Indian	-10727
▁आंबेडकर	-10728
▁चित्रकार	-10729
ou	-10730
दीश	-10731
▁अलं	-10732
▁बताई	-10733
▁बॉम्बे	-10734
▁मैकमोहन	-10735
▁इस्लामिक	-10736
▁विनिर्माण	-10737
वने	-10738
▁1943	-10739
▁आदिम	-10740
▁दिना	-10741
▁स्या	-10742
र्लिंग	-10743
▁कॉमेडी	-10744
लीम	-10745
▁टर	-10746
राशि	-10747
▁नित	-10748
▁इम्प	-10749
▁दाँत	-10750
▁नाकाम	-10751
▁पुष्ट	-10752
▁अपभ्रंश	-10753
13′	-10754
याप	-10755
ूमा	-10756
इयां	-10757
▁पशुप	-10758
▁सर्जरी	-10759
▁अनियमित	-10760
▁लक्ष्यों	-10761
eb	-10762
▁ज़ी	-10763
▁एकाद	-10764
▁कैल्	-10765
▁खेतों	-10766
▁चाँदी	-10767
▁27°30′	-10768
▁ग्राम्य	-10769
▁मन्त्री	-10770
▁पड	-10771
▁इंक	-10772
▁भाल	-10773
▁have	-10774
▁जानता	-10775
▁दीवान	-10776
▁79°24′	-10777
▁ट्रॉफी	-10778
▁रेटिंग	-10779
न्त्रिकी	-10780
▁स्पोर्ट्स	-10781
www	-10782
सिम	-10783
▁पप	-10784
णियाँ	-10785
▁27.5°	-10786
▁कालिदास	-10787
▁सुसज्जित	-10788
पेयी	-10789
साउथ	-10790
▁असह	-10791
▁उमर	-10792
देशीय	-10793
ॉर्डन	-10794
▁ताना	-10795
▁विचल	-10796
फ़ील्ड	-10797
▁27.5;	-10798
▁79.4°	-10799
▁इनपुट	-10800
▁कपड़ा	-10801
▁कुत्ते	-10802
▁स्‍थान	-10803
▁पुर्णिया	-10804
▁स्वाधीनता	-10805
,8	-10806
मणि	-10807
▁आभ	-10808
▁हदी	-10809
वारों	-10810
▁फारस	-10811
▁मापा	-10812
कप	-10813
man	-10814
ूरा	-10815
▁लेक	-10816
▁वॉन	-10817
बाज़ी	-10818
▁कटरी	-10819
▁जवान	-10820
▁सिया	-10821
वांशिक	-10822
▁माहौल	-10823
▁लार्ड	-10824
▁महानगरीय	-10825
▁उत्तराखंड	-10826
05	-10827
one	-10828
ँची	-10829
ates	-10830
िम्म	-10831
▁क्रय	-10832
त्यक्ष	-10833
▁हार्डवेयर	-10834
वॉ	-10835
र्ता	-10836
ारोपण	-10837
▁चैंपियन	-10838
▁मजदूरों	-10839
erv	-10840
नाट	-10841
▁1923	-10842
▁क़बी	-10843
▁कोर्स	-10844
▁टैगोर	-10845
▁पार्थ	-10846
▁बाजारों	-10847
▁कोशिकाएं	-10848
▁नियन्त्र	-10849
▁हांगकांग	-10850
मुक	-10851
लेक	-10852
▁कॅ	-10853
▁1916	-10854
▁पोशाक	-10855
वचन	-10856
▁असल	-10857
▁कराई	-10858
▁मेयर	-10859
▁लड़के	-10860
▁गुर्जर	-10861
नीत	-10862
कथित	-10863
ब्राह	-10864
▁पराव	-10865
▁फेंक	-10866
▁बेचा	-10867
▁रेजि	-10868
▁मकबरा	-10869
▁कामयाब	-10870
▁इंग्लिश	-10871
▁ब्राज़ील	-10872
ंछ	-10873
गिल	-10874
मनी	-10875
ाज़ी	-10876
ांजलि	-10877
▁1912	-10878
▁स्लो	-10879
▁बरकरार	-10880
▁लाइब्रे	-10881
▁राजतंत्र	-10882
डू	-10883
बूझ	-10884
▁ab	-10885
ांडा	-10886
▁आसन	-10887
▁खजुर	-10888
▁फीचर	-10889
▁बसाया	-10890
▁निष्ठा	-10891
▁वाल्मी	-10892
गोर	-10893
बिर	-10894
आर्थ	-10895
▁1.5	-10896
▁टॉप	-10897
▁रशी	-10898
▁ग्रंथि	-10899
▁प्रान्तों	-10900
हारण	-10901
▁हॉट	-10902
▁also	-10903
▁क्षी	-10904
▁मीना	-10905
▁लौटे	-10906
▁सैयद	-10907
▁इन्टर	-10908
▁स्टोर	-10909
▁प्रतिल	-10910
▁मन्दिरों	-10911
▁यूरोपियन	-10912
▁धर्मशास्त्र	-10913
ुकुल	-10914
▁हेक्ट	-10915
▁कुंडली	-10916
▁प्रेमी	-10917
▁पद्धतियों	-10918
:15	-10919
बाब	-10920
सिटी	-10921
डियों	-10922
▁नारा	-10923
▁बालू	-10924
▁वनस्पतियों	-10925
ि‍	-10926
्ध	-10927
▁83	-10928
▁शरद	-10929
ेलखंड	-10930
▁पैनल	-10931
▁मुड़	-10932
▁यूरेन	-10933
ational	-10934
▁वेधशाला	-10935
▁शास्त्रों	-10936
ालो	-10937
ition	-10938
िलीपी	-10939
▁सीडी	-10940
▁गर्दन	-10941
▁अनुचित	-10942
▁समाहित	-10943
▁भूवैज्ञानिक	-10944
int	-10945
फिल	-10946
ोनेट	-10947
▁ढेर	-10948
▁सिग	-10949
▁जीएस	-10950
▁पूजन	-10951
▁बल्लेबाजी	-10952
थो	-10953
▁ह्व	-10954
▁उदास	-10955
▁चीजें	-10956
▁असंख्य	-10957
▁आधिपत्य	-10958
▁राजनयिक	-10959
▁वाशिंगटन	-10960
▁प्रेसीडेंसी	-10961
▁हकी	-10962
▁पेशा	-10963
▁सुविध	-10964
▁क़ुरआन	-10965
▁प्रोफ़	-10966
▁अवशोषित	-10967
▁प्रदाता	-10968
▁जनसांख्यिकी	-10969
डाई	-10970
ुली	-10971
▁वड	-10972
▁रिए	-10973
ाइटिस	-10974
▁1933	-10975
▁वीरता	-10976
▁निवारण	-10977
▁रोट	-10978
▁चयाप	-10979
▁बतौर	-10980
ेश्वरी	-10981
▁मुद्दा	-10982
▁इलेक्ट्रॉनिक्स	-10983
und	-10984
ऊदी	-10985
ेम्प	-10986
▁गेल	-10987
▁न्य	-10988
▁शंकु	-10989
▁आगामी	-10990
▁काबुल	-10991
▁प्रात	-10992
▁बैठने	-10993
▁हवेली	-10994
▁गुप्ता	-10995
▁रिजर्व	-10996
▁चिकित्सीय	-10997
▁मोज	-10998
▁शोर	-10999
र्वाद	-11000
▁बताती	-11001
▁अनौपचारिक	-11002
ake	-11003
▁San	-11004
्रूख़	-11005
▁उन्‍	-11006
▁टकरा	-11007
▁वैसा	-11008
▁आर्मी	-11009
▁खोजने	-11010
▁डैविल	-11011
▁जायेगी	-11012
▁शनिवार	-11013
▁जीवाणुओं	-11014
98	-11015
य्य	-11016
ज्जा	-11017
▁भैंस	-11018
▁लौटा	-11019
▁बदलती	-11020
▁मरीजों	-11021
▁शिष्यों	-11022
▁यूनेस्को	-11023
रथ	-11024
▁बैड	-11025
ैशियम	-11026
ोक्ति	-11027
▁मिमी	-11028
▁कलाओं	-11029
▁क्षमा	-11030
▁निपटने	-11031
41	-11032
▁j	-11033
राट	-11034
▁7.	-11035
▁जाएं	-11036
▁सीजन	-11037
▁स्वे	-11038
▁निभाने	-11039
▁संज्ञान	-11040
▁अभियानों	-11041
▁मूर्तियां	-11042
ंसी	-11043
▁ढूंढ	-11044
▁तेरह	-11045
▁इन्दिरा	-11046
▁संतुलित	-11047
▁टेलीविज़न	-11048
▁स्वयंसेवक	-11049
शोर	-11050
दरजंग	-11051
फ़ेयर	-11052
▁कोटा	-11053
▁पेशी	-11054
▁पॉटर	-11055
▁सूअर	-11056
▁इलाका	-11057
▁जीर्ण	-11058
▁त्रिज	-11059
▁बंदूक	-11060
▁बम्बई	-11061
▁उदहारण	-11062
्ह	-11063
ोसे	-11064
ेंसर	-11065
▁म्यु	-11066
▁विशे	-11067
▁किंग्स	-11068
▁चेष्टा	-11069
▁कैल्शियम	-11070
भे	-11071
ase	-11072
ेरे	-11073
▁लय	-11074
rans	-11075
▁बाँटा	-11076
▁मकबरे	-11077
▁गोपनीय	-11078
▁ब्राउन	-11079
ox	-11080
सीए	-11081
ानो	-11082
एसएस	-11083
▁डॉन	-11084
▁बेड	-11085
▁नागा	-11086
▁सूचक	-11087
▁बुखार	-11088
▁भयानक	-11089
4%	-11090
संप	-11091
ुका	-11092
▁कवच	-11093
▁कुतु	-11094
▁ड्रम	-11095
▁योगी	-11096
▁परवर्ती	-11097
▁प्रत्यय	-11098
ल्ह	-11099
ुकी	-11100
ward	-11101
टाउन	-11102
स्तक	-11103
▁सूफी	-11104
▁सैंड	-11105
▁सर्किट	-11106
▁कायमगंज	-11107
▁निकटवर्ती	-11108
ile	-11109
इसके	-11110
▁भूख	-11111
वास्त	-11112
▁कांट	-11113
▁पलायन	-11114
▁पादरी	-11115
▁मुकुट	-11116
▁अन्तर्	-11117
▁ज़रूरी	-11118
▁दृढ़ता	-11119
▁महाप्र	-11120
▁विनियम	-11121
▁संध्या	-11122
▁एंजिल्स	-11123
▁उत्तरदायित्व	-11124
अभ	-11125
ासर	-11126
भट्ट	-11127
▁दार	-11128
स्थता	-11129
▁बसें	-11130
▁कैलाश	-11131
▁प्राइ	-11132
▁स्विच	-11133
▁साइकिल	-11134
▁वैद्युत	-11135
▁नागरिकता	-11136
▁रेजिमेंट	-11137
▁विलियम्स	-11138
▁कॉर्पोरेट	-11139
ोधक	-11140
ौजी	-11141
दूरी	-11142
▁रियल	-11143
▁कन्नड	-11144
▁तार्क	-11145
▁दायरे	-11146
▁रखरखाव	-11147
▁कर्नूलु	-11148
▁निमित्त	-11149
▁मांसपेशियों	-11150
डीए	-11151
स्ड	-11152
▁चाइ	-11153
▁सरा	-11154
व्यास	-11155
▁क़ब्ज़ा	-11156
▁परमात्मा	-11157
▁रेस्तरां	-11158
▁सौन्दर्य	-11159
▁अंग्रेज़ों	-11160
83	-11161
hn	-11162
ालों	-11163
▁उभरा	-11164
▁हीरा	-11165
▁अकेला	-11166
▁कैमरा	-11167
▁चूर्ण	-11168
▁खजुराहो	-11169
▁फ़र्रूख़	-11170
are	-11171
करे	-11172
िफ़	-11173
ोले	-11174
सर्व	-11175
ोटाइप	-11176
▁पश्त	-11177
▁गुफाओं	-11178
▁विशुद्ध	-11179
▁विक्रमादित्य	-11180
वेज	-11181
▁जमश	-11182
▁मूर	-11183
▁1,000	-11184
▁जीनोम	-11185
▁सन्धि	-11186
▁अद्यतन	-11187
▁अलंकृत	-11188
▁तोड़ने	-11189
▁किताबें	-11190
▁निर्वास	-11191
▁मार्केट	-11192
▁अवस्थाओं	-11193
ंदे	-11194
ासो	-11195
धारक	-11196
सम्म	-11197
प्रेम	-11198
▁मरीज	-11199
▁कराती	-11200
▁ड्यूक	-11201
▁मापने	-11202
▁सुप्रीम	-11203
▁प्रशंसकों	-11204
▁क्षतिग्रस्त	-11205
▁82	-11206
▁झग	-11207
इयाँ	-11208
▁कांस	-11209
िस्टिक	-11210
▁लेफ्ट	-11211
▁महासचिव	-11212
▁प्रायोगिक	-11213
िसू	-11214
विदा	-11215
ेंशन	-11216
▁लेब	-11217
ोनियम	-11218
▁शोभा	-11219
▁एंग्ल	-11220
▁गुम्ब	-11221
▁डालते	-11222
▁मदुरई	-11223
▁सामरिक	-11224
▁विराजमान	-11225
▁पेट्रोलियम	-11226
ci	-11227
ॅन	-11228
ौना	-11229
▁63	-11230
विद्	-11231
▁war	-11232
▁खुशी	-11233
▁भूरे	-11234
▁ओडिशा	-11235
▁उदाहरणों	-11236
ome	-11237
वराज	-11238
▁इंत	-11239
सलमेर	-11240
▁अभिय	-11241
▁नर्स	-11242
शास्त्रीय	-11243
▁उपभोक्ताओं	-11244
uct	-11245
ोदरा	-11246
▁had	-11247
▁कोप	-11248
▁गोआ	-11249
▁उड़ा	-11250
▁बनवा	-11251
▁अन्‍य	-11252
▁दाहिने	-11253
▁नेताजी	-11254
▁विशाखा	-11255
▁कोयंबतूर	-11256
▁राज्यसभा	-11257
▁साझेदारी	-11258
▁उपाध्यक्ष	-11259
डॉ	-11260
िनर	-11261
▁50%	-11262
▁कैफ	-11263
▁मसल	-11264
▁हुक	-11265
▁1926	-11266
▁भेजी	-11267
▁सख्त	-11268
प्रसार	-11269
▁स्टीव	-11270
▁स्नेह	-11271
विद्युत	-11272
▁कॉमिक्स	-11273
▁दर्शाती	-11274
▁परमेश्वर	-11275
▁%	-11276
कॉम	-11277
दीन	-11278
मंद	-11279
▁दहन	-11280
▁पहने	-11281
▁मेहन	-11282
▁रैंक	-11283
▁चमड़े	-11284
▁फ़िल्में	-11285
▁विश्वकोश	-11286
बीज	-11287
ोमन	-11288
▁कं	-11289
▁डिट	-11290
▁बिछ	-11291
▁भजन	-11292
▁जस्ट	-11293
▁इंसान	-11294
▁क्लोर	-11295
▁क्षित	-11296
▁ह्रदय	-11297
▁पिथौरा	-11298
▁ट्वेंटी	-11299
▁मैनचेस्टर	-11300
गिन	-11301
▁1914	-11302
▁सब्ज	-11303
ानियों	-11304
▁किण्व	-11305
▁बंगला	-11306
▁शान्त	-11307
▁संवत्	-11308
▁हुमाय	-11309
▁उत्तेजित	-11310
▁दूरदर्शन	-11311
▁फ्रांसिस	-11312
शक	-11313
ोतक	-11314
तन्य	-11315
ग्राफ	-11316
दान्त	-11317
धिष्ठ	-11318
▁परिम	-11319
▁मवेश	-11320
▁सिंघ	-11321
▁नागरी	-11322
▁प्लूट	-11323
▁जटिलता	-11324
▁परिश्रम	-11325
▁क्षमताओं	-11326
ोगो	-11327
जैविक	-11328
विचार	-11329
▁पौडी	-11330
▁जगदीश	-11331
▁बहरहाल	-11332
▁रिपब्ल	-11333
▁फेफड़ों	-11334
ice	-11335
पोर	-11336
सिया	-11337
▁2.5	-11338
▁घुल	-11339
▁छठे	-11340
विवाद	-11341
▁तलाक	-11342
▁बनीं	-11343
▁आर्ट्स	-11344
▁एफबीआई	-11345
▁अनुभवों	-11346
▁समस्याएं	-11347
▁एजेंसियों	-11348
ंबल	-11349
▁ad	-11350
तिया	-11351
▁बाहु	-11352
पत्रों	-11353
▁होतीं	-11354
▁इलाक़े	-11355
▁प्रकाशक	-11356
▁अभिप्राय	-11357
▁न्यूज़ील	-11358
यता	-11359
▁कड	-11360
▁नृ	-11361
क्को	-11362
▁उदर	-11363
▁एसी	-11364
मितीय	-11365
▁पालम	-11366
▁मिलिक	-11367
▁पंचांग	-11368
▁दुकानों	-11369
▁कास्त्रो	-11370
▁घी	-11371
▁कॉपी	-11372
▁तम्ब	-11373
सूत्रों	-11374
▁पोटैशियम	-11375
▁दुर्भाग्य	-11376
▁भावनात्मक	-11377
▁i	-11378
समु	-11379
▁तुग़ल	-11380
▁चिड़ियाघर	-11381
ैतिक	-11382
बुद्ध	-11383
▁दैत्य	-11384
▁सीमेंट	-11385
▁डार्विन	-11386
▁रसीदपुर	-11387
yn	-11388
बियन	-11389
नियाई	-11390
▁चढ़ा	-11391
▁बुरा	-11392
▁चालुक	-11393
▁निराश	-11394
▁कालीकट	-11395
▁रेड्डी	-11396
▁विपक्ष	-11397
▁संपादित	-11398
▁स्टेट्स	-11399
▁विशेषज्ञता	-11400
पियर	-11401
▁खाई	-11402
▁तिथ	-11403
▁बैट	-11404
▁बोझ	-11405
ेक्शन	-11406
▁1907	-11407
▁ऑप्ट	-11408
▁लगीं	-11409
▁साउंड	-11410
▁आराधना	-11411
▁बलीपुर	-11412
▁परमाणुओं	-11413
▁जमशेद	-11414
▁आज़ादी	-11415
▁चर्चित	-11416
▁क्लोरीन	-11417
▁निक्षेप	-11418
▁महामारी	-11419
▁रामचंद्र	-11420
▁हस्तांतरण	-11421
अव	-11422
ince	-11423
▁पेल	-11424
▁लिथ	-11425
ालयों	-11426
ेक्टर	-11427
▁बेला	-11428
▁वैभव	-11429
▁अनन्त	-11430
▁मुद्रण	-11431
▁संक्रामक	-11432
▁फ़र्रूख़ाबाद	-11433
ina	-11434
बाह	-11435
रमर	-11436
सां	-11437
साइ	-11438
▁मॉल	-11439
▁उधार	-11440
▁आठवीं	-11441
▁मोटाई	-11442
▁धाराओं	-11443
▁उपन्यासकार	-11444
▁टेक्नोलॉजी	-11445
दावरी	-11446
स्कोप	-11447
▁टक्कर	-11448
▁गुड़गांव	-11449
▁संरचनात्मक	-11450
{2}	-11451
जाक	-11452
▁दारा	-11453
▁पालि	-11454
▁ग्लास	-11455
▁दुर्बल	-11456
विज्ञानी	-11457
▁विद्रोही	-11458
▁विशिष्टता	-11459
कार्ड	-11460
▁ग्रै	-11461
▁सऊदी	-11462
▁काटकर	-11463
▁देसाई	-11464
▁फैलने	-11465
▁मानवा	-11466
▁मुगलों	-11467
▁अपराधों	-11468
▁वस्तुएं	-11469
▁विस्फोटक	-11470
▁बाबासाहेब	-11471
दन	-11472
हॉ	-11473
्यांश	-11474
▁भिक्षु	-11475
▁समाजों	-11476
▁त्रिज्या	-11477
▁प्रधानता	-11478
▁लाइब्रेरी	-11479
▁96	-11480
रीबन	-11481
▁एम्प	-11482
▁ज़रा	-11483
▁कराना	-11484
▁तुग़लक़	-11485
▁सेवानिवृत्त	-11486
स्तू	-11487
▁5000	-11488
▁गामा	-11489
▁मल्ल	-11490
▁अग्रसर	-11491
▁प्रोसे	-11492
▁प्लेयर	-11493
▁समर्थित	-11494
▁आशीर्वाद	-11495
्टे	-11496
जाने	-11497
▁मक्	-11498
▁लेप	-11499
▁अराज	-11500
▁देरी	-11501
▁व्‍य	-11502
▁मेहता	-11503
▁कपड़ों	-11504
▁तरंगदै	-11505
▁दांतों	-11506
▁सोमवार	-11507
▁भाषाविज्ञान	-11508
▁It	-11509
▁मुल	-11510
▁अब्ब	-11511
▁कार्प	-11512
▁रियास	-11513
▁सवारी	-11514
▁अवशेषों	-11515
▁अन्तरिक्ष	-11516
ya	-11517
खेत	-11518
ित्री	-11519
▁ब्लॉग	-11520
▁सिलिक	-11521
▁वांछित	-11522
▁केंद्रों	-11523
ेबल	-11524
▁हक	-11525
ब्रा	-11526
ल्लि	-11527
▁रवा	-11528
▁वहन	-11529
ब्रिज	-11530
▁पूना	-11531
▁माली	-11532
▁वापिस	-11533
▁हल्की	-11534
र्याप्त	-11535
▁हिंदुस्तानी	-11536
ग्ल	-11537
हॉल	-11538
▁पग	-11539
▁उधर	-11540
ण्विक	-11541
▁लाइफ	-11542
▁वाइन	-11543
▁कब्जे	-11544
▁खरीदा	-11545
▁परिधि	-11546
▁मानकी	-11547
रुद्दीन	-11548
▁भूविज्ञान	-11549
ंची	-11550
ोलो	-11551
खाने	-11552
र्धा	-11553
▁आर्थर	-11554
▁घुड़स	-11555
▁कमांडर	-11556
▁बलिदान	-11557
▁वोल्टेज	-11558
ana	-11559
टेक	-11560
ंडिया	-11561
▁मतों	-11562
▁उपवास	-11563
▁अलेक्ज	-11564
▁ऋषियों	-11565
िपु	-11566
▁130	-11567
▁आवा	-11568
▁टरब	-11569
▁पं॰	-11570
▁हर्	-11571
्रावण	-11572
▁कच्छ	-11573
▁फीसदी	-11574
▁शेक्स	-11575
▁डीवीडी	-11576
▁अल्कोहल	-11577
▁उपेक्षा	-11578
▁शब्दकोश	-11579
ण्डी	-11580
िंघम	-11581
बोर्न	-11582
स्कृत	-11583
▁आप्र	-11584
▁बढ़े	-11585
▁वेल्श	-11586
▁छात्रा	-11587
▁मैथिली	-11588
▁लड़ाकू	-11589
▁तथाकथित	-11590
▁ऑक्सफोर्ड	-11591
घोष	-11592
▁7,	-11593
्‍वर	-11594
▁तीर	-11595
▁शाल	-11596
ख्यान	-11597
▁गुहा	-11598
▁पॉली	-11599
▁मंजिल	-11600
▁खनिजों	-11601
▁छुट्टी	-11602
▁टुकड़ों	-11603
▁दिलचस्पी	-11604
एड	-11605
बिंद	-11606
योगी	-11607
▁समर	-11608
▁वादी	-11609
▁बोलियों	-11610
िस्मा	-11611
▁कड़ा	-11612
▁78.02	-11613
▁ताम्र	-11614
क्षात्मक	-11615
▁बैंगलोर	-11616
▁शीतकालीन	-11617
▁प्राध्यापक	-11618
97	-11619
मांड	-11620
ोरेल	-11621
मानों	-11622
▁नाडु	-11623
▁जमाने	-11624
▁होम्स	-11625
▁मुकदमे	-11626
▁तुलसीदास	-11627
ail	-11628
निकी	-11629
▁मृदा	-11630
▁मॉरी	-11631
ंतपुरम	-11632
▁करीबी	-11633
▁क्रूर	-11634
▁झीलें	-11635
▁निदेश	-11636
▁फ्रेम	-11637
▁भास्कर	-11638
▁युवाओं	-11639
▁उन्मूलन	-11640
▁प्रांगण	-11641
▁सूचकांक	-11642
▁गॉ	-11643
शाखा	-11644
▁लोप	-11645
▁लीटर	-11646
▁विले	-11647
▁वार्ड	-11648
▁27°11′	-11649
▁दामोदर	-11650
▁जैसलमेर	-11651
▁तार्किक	-11652
▁मुद्रित	-11653
▁वास्तुकार	-11654
▁कार्यकर्ताओं	-11655
▁41	-11656
गारी	-11657
सत्ता	-11658
▁अगला	-11659
▁पाकर	-11660
▁दुष्ट	-11661
▁प्रसव	-11662
▁भुवने	-11663
▁78°01′	-11664
▁राक्षस	-11665
काई	-11666
ited	-11667
ैनिक	-11668
्रोम	-11669
▁III	-11670
▁one	-11671
▁तंग	-11672
▁पंज	-11673
▁लात	-11674
▁अभिनव	-11675
▁गोरखा	-11676
▁त्रिश	-11677
▁पहनने	-11678
▁विक्ष	-11679
▁27.18°	-11680
▁शर्करा	-11681
▁निरपेक्ष	-11682
णीय	-11683
बीस	-11684
ेक्स	-11685
वर्धक	-11686
ियनों	-11687
▁गवाह	-11688
▁फायदा	-11689
▁रहमान	-11690
▁विजयी	-11691
▁ह्रास	-11692
स्थानिक	-11693
ानुभूति	-11694
▁27.18;	-11695
▁पांडुल	-11696
▁फेफड़े	-11697
▁प्रथाओं	-11698
▁किलोग्राम	-11699
▁विशेषताएं	-11700
▁सांख्यिकी	-11701
भट	-11702
}}}	-11703
भंग	-11704
▁कद	-11705
▁नग	-11706
▁चोप	-11707
▁छान	-11708
▁अभ्य	-11709
▁ठंडी	-11710
▁फाइल	-11711
▁पाषाण	-11712
▁78.02°	-11713
▁रेखाओं	-11714
ID	-11715
ely	-11716
ood	-11717
▁सूख	-11718
▁अमान	-11719
कृष्णन	-11720
▁बेसिन	-11721
▁नियोजन	-11722
▁लद्दाख	-11723
▁मूर्तियाँ	-11724
▁गौण	-11725
▁यजु	-11726
▁ग्रा	-11727
▁युगल	-11728
▁सर्ग	-11729
▁चयनित	-11730
▁दिमाग	-11731
▁सच्चाई	-11732
▁रूढ़िवादी	-11733
▁क्रान्तिकारी	-11734
ालीस	-11735
▁DVD	-11736
▁गड़	-11737
▁डिवा	-11738
▁साइड	-11739
▁आवर्त	-11740
▁चैतन्य	-11741
▁मेमोरी	-11742
▁मुजफ्फरपुर	-11743
▁सामग्रियों	-11744
गर्भ	-11745
▁वैल	-11746
▁कपिल	-11747
ार्जुन	-11748
▁मदीना	-11749
धिष्ठिर	-11750
▁नदियां	-11751
▁विलक्षण	-11752
▁संस्कारों	-11753
बेट	-11754
सरी	-11755
ंगेर	-11756
धियाँ	-11757
▁चमकी	-11758
▁चश्म	-11759
▁नन्द	-11760
▁ऑडियो	-11761
▁कस्बे	-11762
▁क्रमिक	-11763
▁विकृति	-11764
▁महाद्वीपों	-11765
जीर	-11766
बैक	-11767
ात्त	-11768
हिन्द	-11769
▁1906	-11770
▁इंडी	-11771
▁लगाये	-11772
च्छादित	-11773
▁ऑस्टिन	-11774
▁लेनदेन	-11775
▁क्षितिज	-11776
▁गोदावरी	-11777
ex	-11778
ूच	-11779
लाप	-11780
काया	-11781
▁has	-11782
▁नाव	-11783
▁अस्त्र	-11784
▁खुलासा	-11785
▁अंग्रेज़	-11786
▁जनजातियों	-11787
own	-11788
▁चलन	-11789
▁मज़	-11790
▁सान	-11791
▁कांड	-11792
▁सर्क	-11793
ोग्लोब	-11794
▁अमिता	-11795
पतिस्मा	-11796
▁अरस्तू	-11797
▁एंजाइम	-11798
▁गर्भाव	-11799
▁वयस्कों	-11800
▁विवादित	-11801
▁विवादों	-11802
▁संकल्पना	-11803
▁ढी	-11804
ुक्त	-11805
▁कहल	-11806
▁बगल	-11807
िकेशन	-11808
▁रावल	-11809
▁सिंड	-11810
▁नारियल	-11811
▁इंडियाना	-11812
▁वर्णक्रम	-11813
▁साइबेरिया	-11814
ढे	-11815
▁6,	-11816
श्रम	-11817
▁इसरो	-11818
▁कैम्प	-11819
▁महोत्सव	-11820
▁जिन्होने	-11821
▁प्रवर्तक	-11822
▁नाइजीरिया	-11823
▁सूक्ष्मदर्शी	-11824
▁जज	-11825
▁its	-11826
▁हीम	-11827
स्मिथ	-11828
▁अनशन	-11829
▁धमकी	-11830
▁समलै	-11831
▁निचली	-11832
▁पटिया	-11833
▁घटनाएं	-11834
▁सीमाएं	-11835
गया	-11836
▁नकल	-11837
▁बन्ध	-11838
▁रोटी	-11839
▁डालता	-11840
▁पड़ोस	-11841
▁प्रो॰	-11842
▁वरदान	-11843
▁सम्पादन	-11844
▁कार्यालयों	-11845
एमएस	-11846
टिया	-11847
पर्व	-11848
▁फेस	-11849
▁लेह	-11850
▁रहीम	-11851
▁कांस्य	-11852
▁बीजिंग	-11853
▁मियामी	-11854
▁काठमांड	-11855
▁रेलमार्ग	-11856
▁सुविधाएँ	-11857
▁होनेवाले	-11858
▁विस्थापित	-11859
ऑन	-11860
चाई	-11861
बड़	-11862
▁CO	-11863
पानी	-11864
ोलिया	-11865
▁डोमेन	-11866
▁लॉजिक	-11867
▁हंगरी	-11868
▁अपूर्ण	-11869
▁करवाने	-11870
▁पूर्वक	-11871
▁वर्णों	-11872
▁विशेषा	-11873
▁स्टैंड	-11874
▁पहुंचाने	-11875
▁युवावस्था	-11876
▁उपलब्धियों	-11877
ूकता	-11878
▁ओड़	-11879
▁कशेर	-11880
▁कोला	-11881
▁सराय	-11882
▁डेवलप	-11883
▁सांता	-11884
▁Cl	-11885
▁चब	-11886
नांग	-11887
▁थ्र	-11888
▁भगव	-11889
संहार	-11890
▁अल्ट	-11891
▁पारा	-11892
▁कोचीन	-11893
▁क्रीम	-11894
▁ढांचा	-11895
▁पायलट	-11896
▁मृत्य	-11897
▁सन्देश	-11898
▁यूरेनियम	-11899
▁तत्पश्चात	-11900
▁पिन	-11901
तावाद	-11902
श्रुत	-11903
▁ग़ैर	-11904
▁टाइट	-11905
तानुसार	-11906
▁85°27′	-11907
▁अद्वैत	-11908
▁उपज़िला	-11909
▁जुड़वां	-11910
▁श्रद्धालु	-11911
▁इलेक्ट्रिक	-11912
▁दीर्घकालिक	-11913
64	-11914
ugh	-11915
ुड़	-11916
्लर	-11917
▁अन्	-11918
▁सील	-11919
▁ईमेल	-11920
▁ख़ाँ	-11921
▁स्वय	-11922
गास्कर	-11923
▁85.45	-11924
▁कैल्स	-11925
▁खोलने	-11926
▁85.45°	-11927
▁डाक्टर	-11928
▁नोकिया	-11929
▁हड्डियों	-11930
▁प्रयोक्ता	-11931
चर्य	-11932
▁ख़ु	-11933
▁नरम	-11934
▁मता	-11935
ंगाना	-11936
▁इस्म	-11937
▁उत्पी	-11938
▁कृतियाँ	-11939
▁कैम्ब्रिज	-11940
गों	-11941
क्ला	-11942
्विक	-11943
▁अमे	-11944
▁पागल	-11945
▁रिहा	-11946
▁शरीफ	-11947
▁संदि	-11948
▁क्षीण	-11949
▁पत्ती	-11950
▁मुरली	-11951
▁सालाना	-11952
amm	-11953
uch	-11954
▁कैने	-11955
▁पिघल	-11956
जरलैंड	-11957
्रीकरण	-11958
▁लिखकर	-11959
▁मणिपुर	-11960
▁अप्रत्यक्ष	-11961
शियन	-11962
▁नॉट	-11963
▁सी॰	-11964
▁माइन	-11965
▁सिन्हा	-11966
▁आकस्मिक	-11967
▁किनारों	-11968
▁गोपीनाथ	-11969
▁युधिष्ठिर	-11970
▁राज्याभिषेक	-11971
ents	-11972
▁आभास	-11973
▁पूर्णत	-11974
▁मानवों	-11975
▁गंभीरता	-11976
▁मित्रों	-11977
नव	-11978
▁अमा	-11979
▁सबको	-11980
▁सौदा	-11981
▁जार्ज	-11982
▁नाविक	-11983
▁गुजरती	-11984
▁रैंकिंग	-11985
▁साधारणत	-11986
▁कहानियां	-11987
▁प्रेक्षण	-11988
▁बब	-11989
▁कूद	-11990
▁पंप	-11991
▁1913	-11992
▁अछूत	-11993
▁गोले	-11994
▁मूलत	-11995
▁द्विप	-11996
▁शिविर	-11997
▁पहलवान	-11998
▁विक्रय	-11999
▁सराहना	-12000
▁हावड़ा	-12001
▁अल्बर्ट	-12002
▁आर्किमि	-12003
▁त्रिभुज	-12004
▁प्रतिरोधी	-12005
ैक्स	-12006
▁Con	-12007
▁पेरू	-12008
▁लाकर	-12009
▁लाती	-12010
▁फैक्ट	-12011
▁वीर्य	-12012
▁समाजवाद	-12013
▁हिस्सेदारी	-12014
ंय	-12015
▁Sh	-12016
▁घृ	-12017
ष्ठी	-12018
ावती	-12019
▁Com	-12020
▁घोट	-12021
▁इन्फ	-12022
▁मापद	-12023
▁सिज़	-12024
▁सेने	-12025
▁ज़रूरत	-12026
▁विश्लेष	-12027
ंजा	-12028
कोल	-12029
क्श	-12030
बहा	-12031
▁ओस	-12032
न्सन	-12033
▁पराग	-12034
▁चार्ज	-12035
▁कब्ज़ा	-12036
▁प्रौढ़	-12037
▁इंडस्ट्री	-12038
▁गर्भावस्था	-12039
जुट	-12040
▁8.	-12041
▁हौ	-12042
कुला	-12043
▁नृत	-12044
▁फोर	-12045
▁वैट	-12046
▁करों	-12047
▁धमनी	-12048
▁स्पेनी	-12049
▁स्थानिक	-12050
▁न्यूयार्क	-12051
ॅट	-12052
ite	-12053
विग	-12054
▁वृह	-12055
ग्रेन	-12056
▁ओंकार	-12057
▁मनाते	-12058
▁रक्षक	-12059
▁स्टोन	-12060
▁टैक्सी	-12061
▁वृत्ता	-12062
▁टर्मिनस	-12063
▁नरेंद्र	-12064
▁समीक्षकों	-12065
▁फ्रांसिस्को	-12066
िसार	-12067
▁गाव	-12068
▁ध्य	-12069
▁कॉर्	-12070
▁मसलन	-12071
▁रुधिर	-12072
▁सुगंध	-12073
स्थापित	-12074
▁टरबाइन	-12075
82	-12076
▁140	-12077
▁per	-12078
▁एडम	-12079
▁गान	-12080
▁चाण	-12081
▁रूट	-12082
डब्लू	-12083
▁एंटर	-12084
▁चतुर	-12085
▁रिला	-12086
ोपरांत	-12087
▁भारते	-12088
▁अलौकिक	-12089
▁शृंगार	-12090
डागास्कर	-12091
▁निरन्तर	-12092
▁मध्यकाल	-12093
▁समुच्चय	-12094
▁आंदोलनों	-12095
▁अधिकांशतः	-12096
▁अपर्याप्त	-12097
54	-12098
पदी	-12099
ूतन	-12100
ोटो	-12101
नुमा	-12102
टरीना	-12103
्वारे	-12104
▁लाना	-12105
▁ताइवान	-12106
▁रहेंगे	-12107
▁रिश्ता	-12108
▁आखिरकार	-12109
▁कैटरीना	-12110
▁जायेंगे	-12111
▁थाईलैंड	-12112
▁पंजीकरण	-12113
▁स्पर्धा	-12114
▁हज़ारों	-12115
▁एलेक्ट्र	-12116
रपुर	-12117
▁his	-12118
ublic	-12119
बाड़ी	-12120
▁रखें	-12121
▁भगवान्	-12122
▁परेशानी	-12123
▁शुक्रवार	-12124
▁डेमोक्रेट	-12125
▁दस्तावेजों	-12126
ोबै	-12127
रोली	-12128
▁चुप	-12129
▁रतन	-12130
▁कमज़	-12131
▁बीएस	-12132
▁जनवादी	-12133
▁हेराल्ड	-12134
नीज	-12135
पत्त	-12136
▁एवम	-12137
▁चुक	-12138
भाषिक	-12139
▁कॉफी	-12140
▁टाइगर	-12141
▁फोर्ड	-12142
▁बिन्द	-12143
▁हाइपर	-12144
▁पशुपालन	-12145
▁संग्रहित	-12146
▁हेक्टेयर	-12147
▁मध्ययुगीन	-12148
त्‍व	-12149
केंद्र	-12150
प्रमुख	-12151
▁क्षार	-12152
▁निपुण	-12153
▁बेस्ट	-12154
▁वक्ता	-12155
▁सच्चे	-12156
▁विमर्श	-12157
▁सिक्कों	-12158
▁स्मार्ट	-12159
▁गृहयुद्ध	-12160
▁उछ	-12161
▁सीर	-12162
▁सूट	-12163
▁बाजी	-12164
▁समझे	-12165
▁एमआईटी	-12166
▁मधुमेह	-12167
▁रवांडा	-12168
▁किताबों	-12169
▁चिकित्सकों	-12170
पह	-12171
▁गरु	-12172
▁अंतत	-12173
▁क्ली	-12174
▁धारी	-12175
▁पल्ल	-12176
▁कराची	-12177
▁इलाक़ा	-12178
▁कार्बो	-12179
▁अनुकूलन	-12180
▁मरुस्थल	-12181
▁मध्यवर्ती	-12182
▁रूपांतरित	-12183
▁अंटार्कटिका	-12184
ork	-12185
ंसे	-12186
डार	-12187
पंथी	-12188
▁कोक	-12189
▁जनमत	-12190
▁सपना	-12191
प्रदाय	-12192
▁कर्ता	-12193
▁नलिका	-12194
▁भगवती	-12195
म्बाब्वे	-12196
▁वाद्ययंत्र	-12197
che	-12198
बेन	-12199
्मन	-12200
यक्त	-12201
ावली	-12202
▁अटल	-12203
▁पिप	-12204
▁बैर	-12205
▁दरों	-12206
▁पेपर	-12207
▁सीने	-12208
▁गैलरी	-12209
▁ढाँचे	-12210
▁राउंड	-12211
▁नारंगी	-12212
▁लिनक्स	-12213
▁प्रसंस्	-12214
▁वाजपेयी	-12215
▁द्वितीयक	-12216
▁रियासतों	-12217
िसिस	-12218
▁शंख	-12219
कथाओं	-12220
स्केप	-12221
▁मेहरा	-12222
▁शुभार	-12223
▁सजाया	-12224
▁मांसाह	-12225
DP	-12226
काज	-12227
चिक	-12228
▁वु	-12229
िटिक	-12230
ोष्ण	-12231
▁मोल	-12232
▁यूट	-12233
▁लता	-12234
▁वादा	-12235
▁ड्राइवर	-12236
▁क्रियाएँ	-12237
▁बपतिस्मा	-12238
▁आस्ट्रेलिया	-12239
▁तिरुवनंतपुरम	-12240
पद्ध	-12241
मंगल	-12242
विंद	-12243
ानाथ	-12244
▁747	-12245
▁चूह	-12246
▁युन	-12247
▁बेंज	-12248
▁एकजुट	-12249
▁महिमा	-12250
▁रहेगी	-12251
▁आउटपुट	-12252
rop	-12253
ंचन	-12254
▁ईश्व	-12255
▁टॉवर	-12256
▁25.10	-12257
▁85.90	-12258
▁जिज्ञ	-12259
▁ध्येय	-12260
▁सकेगा	-12261
▁आरोपों	-12262
▁पड़ेगा	-12263
▁मिलाने	-12264
▁गुरुकुल	-12265
▁वोल्टता	-12266
▁उपलब्धता	-12267
▁रामकृष्ण	-12268
▁विस्थापन	-12269
डिश	-12270
पाई	-12271
दर्स	-12272
▁कड़	-12273
▁फ़ि	-12274
ल्ड्स	-12275
▁गिरी	-12276
▁शिलांग	-12277
▁जानेवाली	-12278
▁स्क्वायर	-12279
▁अंतर्निहित	-12280
tic	-12281
इज़	-12282
दंत	-12283
ूआत	-12284
टिंग	-12285
▁कॉन	-12286
▁भैरव	-12287
▁विध्व	-12288
▁हटाकर	-12289
▁गेंदबाजी	-12290
▁विनिर्देश	-12291
एफसी	-12292
र्भर	-12293
साइड	-12294
▁नक़	-12295
▁नमी	-12296
▁बीत	-12297
▁योर	-12298
▁कस्त	-12299
▁खाया	-12300
▁विंग	-12301
▁स्टेन	-12302
▁ज़िम्म	-12303
▁युवराज	-12304
▁पहुँचाने	-12305
▁बहुमूल्य	-12306
▁स्वेच्छा	-12307
याई	-12308
▁रचा	-12309
▁चर्म	-12310
▁धुरी	-12311
▁खुराक	-12312
▁दिखाए	-12313
▁सिडनी	-12314
▁सेक्स	-12315
▁तस्मान	-12316
▁सुनवाई	-12317
▁प्रादेश	-12318
▁संकीर्ण	-12319
▁संगमरमर	-12320
▁पीढ़ियों	-12321
▁रिपब्लिकन	-12322
61	-12323
ces	-12324
ium	-12325
असल	-12326
हसास	-12327
▁घुट	-12328
▁माओ	-12329
▁लुट	-12330
▁शाद	-12331
जीवित	-12332
▁अग्न	-12333
▁खंडन	-12334
▁पढ़े	-12335
▁मिलन	-12336
▁मुक़	-12337
ब्रिटिश	-12338
▁आवागमन	-12339
▁दिखाते	-12340
▁भीमराव	-12341
▁स्वराज	-12342
▁दीमापुर	-12343
▁उत्कीर्ण	-12344
▁अल्जीरिया	-12345
▁अफ़्ग़ानिस्तान	-12346
az	-12347
कोड	-12348
निय	-12349
ंकुश	-12350
ालियन	-12351
▁मज़ब	-12352
▁अपूर्	-12353
▁जरुरत	-12354
▁दुष्प	-12355
▁रवाना	-12356
▁खण्डों	-12357
▁चाणक्य	-12358
▁समझाया	-12359
▁समर्पण	-12360
ोपाध्याय	-12361
▁श्रीनिवास	-12362
ौकी	-12363
▁62	-12364
ेटेड	-12365
▁एलन	-12366
▁गौड़	-12367
▁छन्द	-12368
▁योनि	-12369
▁कामों	-12370
▁कुलीन	-12371
▁कॉर्न	-12372
▁बुर्ज	-12373
▁सिंगल	-12374
▁हिल्स	-12375
▁फ्राइड	-12376
▁भरतपुर	-12377
▁औषधियों	-12378
▁मोरक्को	-12379
▁जाम्बिया	-12380
ोपै	-12381
▁04	-12382
▁पदो	-12383
▁सीई	-12384
▁परिणत	-12385
▁संतों	-12386
▁आदित्य	-12387
▁पाणिनि	-12388
▁कुत्तों	-12389
▁बीजापुर	-12390
▁निवेशकों	-12391
▁प्रतिबन्ध	-12392
चै	-12393
बोल	-12394
▁ऐन	-12395
नाओं	-12396
ान्द	-12397
▁दीं	-12398
▁1800	-12399
▁part	-12400
▁अरुण	-12401
▁बहाव	-12402
▁चलाते	-12403
▁अधिकता	-12404
▁व्यवसायों	-12405
डीन	-12406
▁गन	-12407
्स्ट	-12408
▁डेट	-12409
▁आक्स	-12410
▁वर्च	-12411
▁अनुपम	-12412
▁चालीस	-12413
▁टकराव	-12414
▁मुंगेर	-12415
▁राजकोट	-12416
▁पुरोहित	-12417
▁मोनोरेल	-12418
▁संतुष्ट	-12419
▁जयप्रकाश	-12420
71	-12421
-15	-12422
ict	-12423
मोह	-12424
▁IP	-12425
▁दह	-12426
केतु	-12427
▁दही	-12428
▁सफर	-12429
▁वाटर	-12430
ेंटीना	-12431
्वाडोर	-12432
▁उपनगर	-12433
▁गर्भव	-12434
▁ट्राइ	-12435
▁स्कैन	-12436
ॉक्साइड	-12437
▁महत्ता	-12438
▁मॉरीशस	-12439
▁क्षुद्र	-12440
▁प्रमुखता	-12441
row	-12442
yst	-12443
ance	-12444
रहित	-12445
स्से	-12446
ायीं	-12447
▁अफसर	-12448
▁औजार	-12449
▁डाले	-12450
▁दानव	-12451
▁स्ला	-12452
▁मिलना	-12453
यूरोपीय	-12454
▁ज़माने	-12455
▁झारखण्ड	-12456
▁विषाक्त	-12457
▁जागरूकता	-12458
▁विक्रेता	-12459
▁शुक्राणु	-12460
जीन	-12461
ामु	-12462
ट्ठी	-12463
पकों	-12464
▁10%	-12465
▁हीन	-12466
लीकरण	-12467
▁कमेटी	-12468
▁दिखती	-12469
▁सहस्र	-12470
▁दर्शाने	-12471
ओल	-12472
फेर	-12473
ियट	-12474
ound	-12475
िप्स	-12476
▁बडा	-12477
होंने	-12478
▁आईएस	-12479
▁पैतृ	-12480
▁बैरम	-12481
▁बीजों	-12482
▁आपातकाल	-12483
▁उपनिवेशों	-12484
any	-12485
नें	-12486
उन्ह	-12487
यामी	-12488
ल्कि	-12489
▁उलझ	-12490
▁जनित	-12491
▁बताए	-12492
कलापों	-12493
▁स्थूल	-12494
▁राइफल्स	-12495
▁श्रीमद्	-12496
▁तेलंगाना	-12497
▁समारोहों	-12498
▁श्रद्धांजलि	-12499
▁125	-12500
▁मुन	-12501
▁गाइड	-12502
▁गिने	-12503
▁एहसास	-12504
▁मोर्चा	-12505
▁एयरलाइन	-12506
▁बिस्मिल	-12507
▁पुनर्गठन	-12508
▁बस्तियों	-12509
▁वाक्यांश	-12510
ाद्र	-12511
▁चिह	-12512
ंजस्य	-12513
न्दगी	-12514
ोडिया	-12515
▁1901	-12516
कात्मक	-12517
▁बद्री	-12518
्यूटिंग	-12519
▁भित्ति	-12520
▁मित्रता	-12521
▁साम्राज	-12522
▁ताजिकिस्तान	-12523
▁जस	-12524
form	-12525
ल्डर	-12526
समाज	-12527
▁गड्	-12528
▁टिम	-12529
▁गन्ध	-12530
▁बागड	-12531
▁रूपी	-12532
▁आर्यों	-12533
▁गारंटी	-12534
▁चक्रवात	-12535
▁शिक्षकों	-12536
▁दक्षिणपूर्वी	-12537
थेन	-12538
िगम	-12539
▁डै	-12540
फर्ट	-12541
ूआतू	-12542
▁लोड	-12543
▁बराब	-12544
▁मंदी	-12545
▁सींग	-12546
▁लिखीं	-12547
▁निराशा	-12548
▁उत्सर्जित	-12549
द्म	-12550
सैण	-12551
िलर	-12552
ीयों	-12553
▁चाप	-12554
बारों	-12555
▁अभूत	-12556
▁टेबल	-12557
▁गेम्स	-12558
▁बँगला	-12559
▁श्रवण	-12560
▁आरक्षण	-12561
92	-12562
पैड	-12563
फेयर	-12564
रायल	-12565
▁करण	-12566
▁डें	-12567
▁अनुभ	-12568
▁समता	-12569
▁हमने	-12570
▁प्रेष	-12571
▁भागने	-12572
▁सर्दी	-12573
▁खुफिया	-12574
▁शिशुओं	-12575
▁सहकारी	-12576
र्विज्ञान	-12577
नाद	-12578
▁भती	-12579
▁लास	-12580
ियन्स	-12581
▁1909	-12582
▁आक्र	-12583
▁बुरे	-12584
▁ट्रेड	-12585
▁पुकार	-12586
▁भारतेन्दु	-12587
▁मुख्यधारा	-12588
रंग	-12589
▁छी	-12590
फीति	-12591
्सडन	-12592
▁110	-12593
▁टिन	-12594
▁ठंड	-12595
▁घाना	-12596
▁जन्त	-12597
▁स्टाल	-12598
ैटफ़र्ड	-12599
▁अनावश्यक	-12600
:45	-12601
फाई	-12602
ल्ठ	-12603
▁बोत	-12604
▁मृद	-12605
▁एथली	-12606
▁थर्म	-12607
▁विंध	-12608
ाचार्य	-12609
▁नज़दी	-12610
▁होंगी	-12611
िस्ट्री	-12612
▁प्राइम	-12613
▁गेंदबाज	-12614
▁बागडोगरा	-12615
▁माइग्रेन	-12616
▁राजपूतों	-12617
▁संज्ञानात्मक	-12618
,6	-12619
ज़ो	-12620
▁एटी	-12621
▁रुट	-12622
▁जोली	-12623
▁बुल्	-12624
▁साइन	-12625
▁पत्तों	-12626
▁पुजारी	-12627
▁इलाक़ों	-12628
▁एंटीबाय	-12629
▁निरंकुश	-12630
शों	-12631
▁मैल	-12632
ोड़ों	-12633
▁मुहा	-12634
▁रनवे	-12635
▁फांसी	-12636
▁फाइबर	-12637
▁भूकम्प	-12638
▁डिज़्नी	-12639
▁कारखानों	-12640
पाठ	-12641
frac	-12642
अर्थ	-12643
▁बडे	-12644
▁बॉल	-12645
▁सीन	-12646
स्पेस	-12647
ानुमान	-12648
▁मिल्व	-12649
▁गुलाबी	-12650
▁मूर्तिक	-12651
▁विधियाँ	-12652
▁अभिलेखों	-12653
▁चित्तौड़	-12654
राष्ट्रपति	-12655
▁अभूतपूर्व	-12656
▁न्यायाधीशों	-12657
fer	-12658
वाक	-12659
संच	-12660
▁चह	-12661
सीआई	-12662
▁900	-12663
ेल्सी	-12664
▁काँच	-12665
▁टिका	-12666
▁डीसी	-12667
▁साबुन	-12668
▁पहुंची	-12669
▁कविताएँ	-12670
▁दोस्तों	-12671
▁पश्चिमोत्तर	-12672
वु	-12673
old	-12674
फ़्	-12675
वटी	-12676
ख़ान	-12677
ग्वे	-12678
▁but	-12679
▁आगम	-12680
▁एम्	-12681
▁कनि	-12682
▁सेब	-12683
मित्र	-12684
स्राव	-12685
िल्या	-12686
▁अवधी	-12687
▁किंव	-12688
▁ज्यों	-12689
▁डालकर	-12690
▁संस्‍	-12691
▁तंजानिया	-12692
▁आश्चर्यजनक	-12693
श्न	-12694
orld	-12695
▁उठता	-12696
▁रसूल	-12697
धारकों	-12698
▁जिक्र	-12699
▁दूरदर्शी	-12700
▁शेक्सपियर	-12701
ime	-12702
रीट	-12703
▁हरित	-12704
▁बैडमि	-12705
▁स्टैन	-12706
▁याचिका	-12707
▁पदार्थो	-12708
▁अभियान्त्रिकी	-12709
जिकल	-12710
साला	-12711
िसिन	-12712
▁गंत	-12713
▁बॉय	-12714
▁साय	-12715
रियों	-12716
▁टीपू	-12717
▁अधिका	-12718
▁कुमारी	-12719
▁प्रेरक	-12720
▁घाटियों	-12721
▁मौके	-12722
▁रेसल	-12723
▁ज़ूमा	-12724
▁गाजीपुर	-12725
▁बहिष्कार	-12726
ंर	-12727
ral	-12728
गें	-12729
▁350	-12730
▁चौख	-12731
▁साद	-12732
▁ईमान	-12733
▁खिंच	-12734
▁मैनह	-12735
▁काण्ड	-12736
▁घोड़ा	-12737
▁जानकी	-12738
▁जानना	-12739
▁डेविस	-12740
▁तुल्य	-12741
▁दरअसल	-12742
▁पैतृक	-12743
▁अरुणाचल	-12744
▁रचनाकाल	-12745
▁विकलांग	-12746
▁विवेकान	-12747
▁जीववैज्ञानिक	-12748
In	-12749
हट	-12750
▁जिल	-12751
स्टार	-12752
▁incl	-12753
▁चलाई	-12754
▁फिला	-12755
▁वरीय	-12756
▁अंगुल	-12757
▁इंजनों	-12758
▁सातवें	-12759
▁महत्वाका	-12760
▁सामंजस्य	-12761
▁पंक्तियों	-12762
96	-12763
ऐं	-12764
oul	-12765
कणी	-12766
वहन	-12767
शिन	-12768
्टो	-12769
भावी	-12770
ुत्त	-12771
▁धनु	-12772
▁पीस	-12773
▁राई	-12774
▁रिम	-12775
शासित	-12776
▁ओल्ड	-12777
▁दयाल	-12778
▁हर्ट	-12779
▁पुकारा	-12780
▁मनमोहन	-12781
▁गर्भवती	-12782
▁प्रशंसक	-12783
▁बेंगलुरु	-12784
▁सैद्धान्तिक	-12785
▁अर्थशास्त्री	-12786
sp	-12787
amb	-12788
रिच	-12789
कावट	-12790
ण्टर	-12791
िवंश	-12792
▁कवक	-12793
र्ड्स	-12794
▁अपरि	-12795
▁इष्ट	-12796
▁परोप	-12797
▁बर्क	-12798
▁चैत्र	-12799
▁जोन्स	-12800
▁परतों	-12801
▁घनिष्ठ	-12802
▁भण्डार	-12803
▁लड़कों	-12804
▁पहुँचती	-12805
▁बिंदुओं	-12806
▁अर्जेंटीना	-12807
95	-12808
आम	-12809
इंड	-12810
दर्द	-12811
▁20%	-12812
▁num	-12813
▁आका	-12814
▁कटा	-12815
▁जलस	-12816
क्षीय	-12817
▁उतने	-12818
▁यांग	-12819
▁रेती	-12820
▁जिंदगी	-12821
▁राज्‍य	-12822
▁गोलार्ध	-12823
▁कर्तव्यों	-12824
▁धर्मनिरपेक्ष	-12825
▁सिज़ोफ्रेनिया	-12826
िटक	-12827
▁ऊन	-12828
▁नस्	-12829
▁कॉले	-12830
▁पढाई	-12831
▁छावनी	-12832
▁दर्रे	-12833
▁वेंकट	-12834
▁दूरस्थ	-12835
▁रामानु	-12836
न्द्रनाथ	-12837
▁चन्द्रशेखर	-12838
0%	-12839
ey	-12840
400	-12841
फिर	-12842
कहीं	-12843
वेरी	-12844
▁पतले	-12845
▁स्टे	-12846
▁सम्मुख	-12847
▁सम्पादक	-12848
▁क्रांतिकारियों	-12849
▁थल	-12850
ंघाई	-12851
ल्कर	-12852
्वर्ड	-12853
▁ग्ले	-12854
▁लाये	-12855
▁अष्टा	-12856
▁इरादा	-12857
▁आह्वान	-12858
▁सार्थक	-12859
▁सांख्यिकीय	-12860
▁राष्ट्रीयता	-12861
िथ	-12862
▁फर्श	-12863
▁सजावट	-12864
▁अवशिष्ट	-12865
▁संदिग्ध	-12866
▁मिल्वौकी	-12867
▁2.0	-12868
यक्तिक	-12869
्लेक्स	-12870
▁मेहनत	-12871
ुमिनियम	-12872
▁एंग्लो	-12873
▁गीतकार	-12874
▁टोक्यो	-12875
▁पतंजलि	-12876
▁मिलाया	-12877
▁स्तुति	-12878
▁बुंदेलखंड	-12879
तीन	-12880
▁98	-12881
एलवी	-12882
▁एंव	-12883
विदेश	-12884
iology	-12885
▁अंगूर	-12886
▁क्राय	-12887
▁27°13′	-12888
▁चतुर्भ	-12889
▁तकरीबन	-12890
▁मैत्री	-12891
▁वर्तनी	-12892
▁व्यर्थ	-12893
▁अंदरूनी	-12894
▁बिल्डिंग	-12895
ash	-12896
खाल	-12897
टूर	-12898
ुमार	-12899
▁छोड	-12900
▁कट्टर	-12901
▁भरोसा	-12902
▁79°30′	-12903
▁अँग्रे	-12904
▁कार्यो	-12905
▁शेयरों	-12906
▁अग्रवाल	-12907
▁आश्वासन	-12908
▁प्रतिक्रियाओं	-12909
sh	-12910
amp	-12911
org	-12912
ैबर	-12913
िनिक	-12914
स्केट	-12915
▁मच्छ	-12916
▁सूखी	-12917
▁होस्ट	-12918
▁79.50°	-12919
▁फ़िरोज़	-12920
भवन	-12921
▁शम	-12922
ट्टे	-12923
▁तान	-12924
▁फूट	-12925
▁किशन	-12926
▁छिड़	-12927
क्ष्मी	-12928
नारायण	-12929
▁जाहिर	-12930
▁27.22;	-12931
▁27.22°	-12932
▁अररिया	-12933
▁उदासीन	-12934
▁टेलिवि	-12935
▁नमूनों	-12936
▁पहुँची	-12937
▁नाटककार	-12938
▁विचारकों	-12939
▁प्रायोजित	-12940
कास	-12941
शेष	-12942
ोको	-12943
।..	-12944
eral	-12945
▁रबर	-12946
▁वक़	-12947
▁साठ	-12948
▁स्न	-12949
▁1880	-12950
▁खोजा	-12951
▁तालि	-12952
▁बाएं	-12953
▁यूरो	-12954
▁क्लिक	-12955
▁भीष्म	-12956
▁मुंडा	-12957
▁संपदा	-12958
▁चैनलों	-12959
ेकिस्तान	-12960
▁तीर्थया	-12961
▁मीमांसा	-12962
▁स्तंभों	-12963
खु	-12964
तला	-12965
नाय	-12966
लाभ	-12967
▁उध	-12968
ण्टी	-12969
म्बो	-12970
▁निकास	-12971
▁नैशनल	-12972
▁फास्ट	-12973
▁फास्फ	-12974
मीमांसा	-12975
▁अपूर्व	-12976
▁स्कूली	-12977
▁परिदृश्य	-12978
▁वाल्मीकि	-12979
▁कठिनाइयों	-12980
▁विरोधियों	-12981
चेरी	-12982
रायन	-12983
र्मर	-12984
ियोल	-12985
▁नाई	-12986
ँख्या	-12987
▁डेढ़	-12988
▁पाइप	-12989
बहादुर	-12990
▁दोहरी	-12991
▁कोल्हा	-12992
▁मेजबान	-12993
▁लीबिया	-12994
▁सलेमपुर	-12995
▁निमोनिया	-12996
चिन	-12997
▁cl	-12998
ोड़ी	-12999
ोफिल	-13000
▁इमे	-13001
▁धमा	-13002
▁रमन	-13003
तालों	-13004
स्मृति	-13005
▁अपनाई	-13006
▁अंडमान	-13007
▁चयापचय	-13008
▁मज़बूत	-13009
▁आरम्भिक	-13010
▁ब्रदर्स	-13011
▁चित्रकारी	-13012
▁लेफ्टिनेंट	-13013
न्दे	-13014
सायन	-13015
▁आँक	-13016
▁आमा	-13017
▁उरु	-13018
▁काश	-13019
▁पनप	-13020
चिह्न	-13021
▁जीने	-13022
▁ठंडे	-13023
▁शर्म	-13024
▁क़रीब	-13025
▁क्लान	-13026
▁बाधित	-13027
▁सोर्स	-13028
▁गुरुद्वारा	-13029
▁प्रसंस्करण	-13030
बामा	-13031
यर्स	-13032
▁शॉप	-13033
णियां	-13034
ेरियन	-13035
▁अंके	-13036
▁जोकी	-13037
▁बाँट	-13038
▁पिराम	-13039
▁समूचे	-13040
▁बढ़ाकर	-13041
▁पुनर्जा	-13042
▁स्पेंसर	-13043
▁कार्यात्मक	-13044
ोसोम	-13045
▁rec	-13046
▁चोर	-13047
▁गार्	-13048
▁ड्रा	-13049
▁मद्द	-13050
▁पोलिश	-13051
▁प्रता	-13052
▁गुम्बद	-13053
▁निज़ाम	-13054
ोग्लोबिन	-13055
▁अनुमोदन	-13056
▁सभ्यताओं	-13057
▁समीकरणों	-13058
▁मिश्रधातु	-13059
▁लघ	-13060
ध्रु	-13061
▁10,	-13062
▁घना	-13063
▁तिव	-13064
स्क्र	-13065
▁cont	-13066
▁कुचल	-13067
▁खासी	-13068
▁दयान	-13069
द्वारा	-13070
▁कथाएँ	-13071
▁खंडहर	-13072
▁गिरती	-13073
▁किरणें	-13074
▁जनसँख्या	-13075
▁पनडुब्बी	-13076
AC	-13077
गरण	-13078
ृहीत	-13079
▁यंग	-13080
चुम्ब	-13081
▁एमबी	-13082
▁चुनौ	-13083
▁टोपी	-13084
▁मुना	-13085
▁फील्ड	-13086
▁बैटमैन	-13087
▁सीरीज़	-13088
▁शक्तियाँ	-13089
▁प्रयोजनों	-13090
▁खगोलशास्त्र	-13091
ब्‍	-13092
reat	-13093
वर्स	-13094
▁0.0	-13095
▁जात	-13096
▁form	-13097
▁क्वी	-13098
▁दाने	-13099
▁परिल	-13100
▁फुफ्	-13101
▁संगी	-13102
▁कॉमिक	-13103
▁घूमते	-13104
▁जड़ें	-13105
▁संवेग	-13106
▁मेगावाट	-13107
▁वर्चस्व	-13108
▁रोमानिया	-13109
▁पार्टियों	-13110
able	-13111
खाना	-13112
▁कलम	-13113
▁धरम	-13114
▁87.0	-13115
▁आईटी	-13116
▁ताड़	-13117
▁पीपल	-13118
समर्पण	-13119
▁बेल्ट	-13120
▁युगों	-13121
▁शंघाई	-13122
▁सब्जी	-13123
▁सस्ते	-13124
▁भ्रष्ट	-13125
▁मंगलौर	-13126
▁सूर्या	-13127
▁कंक्रीट	-13128
▁त्रिपुरा	-13129
ose	-13130
नाया	-13131
ाइज़	-13132
▁अंकुर	-13133
▁नियामक	-13134
▁न्यूक्ल	-13135
▁पटियाला	-13136
▁हाइड्रो	-13137
▁आयुर्विज्ञान	-13138
ari	-13139
बेक	-13140
▁91	-13141
▁आलम	-13142
ution	-13143
▁आयोड	-13144
▁चलाए	-13145
▁बीएम	-13146
सागरीय	-13147
ान्तरण	-13148
▁स्टाफ	-13149
▁रिज़र्व	-13150
▁आर्द्रता	-13151
▁प्रमुखतः	-13152
▁कोल्हापुर	-13153
▁नियन्त्रण	-13154
▁विद्रोहियों	-13155
eng	-13156
ुनी	-13157
च्ची	-13158
▁कंद	-13159
▁धमन	-13160
▁वेन	-13161
भागवत	-13162
▁जलाल	-13163
▁सेवक	-13164
न्यासी	-13165
▁मिर्च	-13166
▁हिमनद	-13167
▁अराजकता	-13168
▁दीपावली	-13169
ैं	-13170
क्यू	-13171
चुअल	-13172
प्ला	-13173
ासुर	-13174
ुकूल	-13175
ुत्व	-13176
▁धुन	-13177
▁बरो	-13178
▁हें	-13179
उत्तर	-13180
्वाजा	-13181
▁कटाई	-13182
▁प्रम	-13183
▁ब्रु	-13184
▁उर्वर	-13185
▁दुग्ध	-13186
िशियाना	-13187
▁तदनुसार	-13188
▁मूल्यवान	-13189
▁विशालकाय	-13190
▁होनेवाली	-13191
▁कुरुक्षेत्र	-13192
बीच	-13193
▁Ed	-13194
▁तख	-13195
िजात	-13196
्रास	-13197
▁छिछ	-13198
▁फिश	-13199
▁मदर	-13200
पोलिस	-13201
्रामा	-13202
▁गंधक	-13203
▁लियो	-13204
▁उठाकर	-13205
▁अनुभवी	-13206
▁कठोरता	-13207
▁कर्मों	-13208
▁परिसंप	-13209
▁मॉडलों	-13210
▁लोकपाल	-13211
खोर	-13212
पृथ	-13213
क्रा	-13214
नाथन	-13215
ुल्स	-13216
▁कोइ	-13217
▁फलत	-13218
▁आईबी	-13219
▁परित	-13220
▁संकर	-13221
िश्चियन	-13222
▁अम्लों	-13223
▁जोड़ों	-13224
▁महत्‍व	-13225
द्योगिकी	-13226
▁कक्षाओं	-13227
▁संवर्धन	-13228
▁ब्राउज़र	-13229
▁भुवनेश्वर	-13230
▁तरंगदैर्घ्य	-13231
we	-13232
▁He	-13233
म्मा	-13234
▁उज़ब	-13235
▁कोर्	-13236
▁देनी	-13237
▁नारद	-13238
▁फ्यू	-13239
संख्या	-13240
▁other	-13241
▁their	-13242
▁खातों	-13243
▁मौसमी	-13244
▁फिलिप्स	-13245
▁वासुदेव	-13246
एट	-13247
गना	-13248
हेल	-13249
क्ले	-13250
ट्टा	-13251
मतों	-13252
▁किन्	-13253
▁बाँस	-13254
▁बॉयल	-13255
▁जोड़ती	-13256
▁कंट्रोल	-13257
▁चिकित्सकीय	-13258
▁पुनर्जागरण	-13259
बेरी	-13260
सम्मत	-13261
▁महेश	-13262
▁अयस्क	-13263
▁डायरी	-13264
▁फैलाव	-13265
▁विखंड	-13266
▁सेंसर	-13267
▁ट्रिपल	-13268
▁अहिल्या	-13269
▁जन्मदिन	-13270
▁निकालकर	-13271
▁इंजेक्शन	-13272
▁गतिशीलता	-13273
▁आलोचनात्मक	-13274
▁इण्डोनेशिया	-13275
▁पूर्वानुमान	-13276
बैंड	-13277
मानव	-13278
▁किट	-13279
▁शोथ	-13280
▁एलिजा	-13281
▁दर्जे	-13282
▁मिल्क	-13283
▁मुंशी	-13284
▁असंतोष	-13285
▁निभाते	-13286
▁विशेषण	-13287
▁सल्फेट	-13288
▁वानूआतू	-13289
▁8,	-13290
ोपोट	-13291
▁1890	-13292
▁दरार	-13293
▁पिया	-13294
▁भद्र	-13295
▁द्योतक	-13296
▁विधायिका	-13297
▁प्रतीकात्मक	-13298
ade	-13299
फिन	-13300
▁93	-13301
र्ली	-13302
शीर्ष	-13303
पद्धति	-13304
▁आन्तर	-13305
▁विनोद	-13306
धिकारों	-13307
▁आवृत्त	-13308
▁मिलेगा	-13309
▁संचालक	-13310
▁समझाने	-13311
▁सिद्धि	-13312
▁प्रशस्त	-13313
▁स्वीडिश	-13314
▁यजुर्वेद	-13315
क़ा	-13316
िगन	-13317
तांत	-13318
▁छाल	-13319
▁दिश	-13320
▁पदा	-13321
▁फुल	-13322
भाष्य	-13323
▁comp	-13324
पतियों	-13325
▁निरूपित	-13326
▁प्रतिस्पर्धी	-13327
oth	-13328
मयी	-13329
हरि	-13330
हारे	-13331
ौपदी	-13332
▁आदम	-13333
▁नाच	-13334
चर्या	-13335
स्कूल	-13336
▁उष्म	-13337
▁झरने	-13338
▁बेरोज	-13339
▁लियोन	-13340
ंजियांग	-13341
▁उड़िया	-13342
▁पारिस्थितिक	-13343
मेड	-13344
िल्ल	-13345
▁बोन	-13346
▁लीन	-13347
▁गुंब	-13348
▁तैरा	-13349
▁मानो	-13350
▁शैवाल	-13351
सामान्य	-13352
▁एड्रेस	-13353
▁मुलायम	-13354
▁हंडिया	-13355
▁सचिवालय	-13356
▁क्रिकेटर	-13357
▁बैडमिंटन	-13358
▁स्वीकार्य	-13359
▁डाइऑक्साइड	-13360
?"	-13361
ोय	-13362
ros	-13363
लील	-13364
▁चप	-13365
फ्री	-13366
▁गुम	-13367
▁गेज	-13368
▁नाह	-13369
▁1902	-13370
▁पतला	-13371
प्राप्त	-13372
▁तिवारी	-13373
▁बोस्टन	-13374
▁पहुँचते	-13375
▁विकारों	-13376
▁दक्षिणपूर्व	-13377
लेम	-13378
▁सेम	-13379
other	-13380
मंत्र	-13381
▁मीठे	-13382
▁लांच	-13383
ावस्था	-13384
▁टेम्प	-13385
▁उत्प्रेरक	-13386
▁सामान्यतया	-13387
84	-13388
ET	-13389
▁आला	-13390
▁टाय	-13391
▁आलेख	-13392
▁वायर	-13393
▁पसन्द	-13394
▁अमिताभ	-13395
▁समस्थानिक	-13396
नॉ	-13397
गाई	-13398
आर्य	-13399
ुकता	-13400
▁तना	-13401
▁पीड	-13402
▁मल्	-13403
▁अज़र	-13404
▁बांट	-13405
▁मर्सि	-13406
विन्यास	-13407
▁दरवाजा	-13408
▁दिखायी	-13409
▁कनेक्शन	-13410
▁निर्वाण	-13411
▁ज्वालामुख	-13412
▁प्राचीनकाल	-13413
▁प्रतिबिंबित	-13414
ोऊ	-13415
.25	-13416
फाद	-13417
माइ	-13418
चिंग	-13419
गरपुर	-13420
▁इंडो	-13421
▁उभरी	-13422
▁धुंध	-13423
▁लैंग	-13424
▁रिवाज	-13425
टेनमेंट	-13426
▁कैप्टन	-13427
▁पहुँचता	-13428
▁जमशेदपुर	-13429
ैग	-13430
ीयू	-13431
▁Is	-13432
▁am	-13433
ार्च	-13434
ोतरी	-13435
▁उभय	-13436
▁बित	-13437
्चर्स	-13438
▁घेरा	-13439
▁पिशा	-13440
▁बिशप	-13441
▁सीआई	-13442
▁अंडों	-13443
▁ब्रिग	-13444
▁महलों	-13445
▁आवश्यकतानुसार	-13446
ans	-13447
पहा	-13448
ैले	-13449
▁बछ	-13450
कोनी	-13451
▁अंप	-13452
▁शेल	-13453
िस्टन	-13454
▁धारक	-13455
▁यूक्रेन	-13456
▁करनेवाला	-13457
▁69	-13458
ुपात	-13459
▁80%	-13460
▁अचल	-13461
▁बीर	-13462
▁राख	-13463
दादपुर	-13464
▁कांति	-13465
▁बिगड़	-13466
▁सितारों	-13467
▁नामीबिया	-13468
▁बिलबोर्ड	-13469
ied	-13470
▁विवश	-13471
▁स्के	-13472
▁नाराज	-13473
▁सूक्त	-13474
चित्रों	-13475
▁पत्तियाँ	-13476
▁सहानुभूति	-13477
ईन	-13478
.00	-13479
ara	-13480
एफ़	-13481
फरी	-13482
▁tw	-13483
उत्प	-13484
िनीत	-13485
▁पीर	-13486
▁जस्ता	-13487
▁दिखते	-13488
▁सरीसृ	-13489
▁उदात्त	-13490
▁दिनांक	-13491
▁नवीकरण	-13492
▁द्रौपदी	-13493
▁नास्तिक	-13494
▁निकायों	-13495
▁प्रशासक	-13496
▁राष्‍ट्रीय	-13497
-12	-13498
ley	-13499
िवल	-13500
प्रस	-13501
ब्ला	-13502
ोमेट	-13503
्राह	-13504
▁आरा	-13505
▁जोस	-13506
▁डील	-13507
▁चौथाई	-13508
▁कज़ाख़	-13509
▁ट्यूमर	-13510
▁जरूरतों	-13511
▁पहचानने	-13512
▁पिरामिड	-13513
▁पेशियों	-13514
▁अध्यायों	-13515
▁फ्रेडरिक	-13516
▁परिलक्षित	-13517
▁प्रतिस्थापन	-13518
ंभर	-13519
सें	-13520
ोक्त	-13521
▁उठे	-13522
▁टूल	-13523
▁तैम	-13524
▁आरती	-13525
▁दोषों	-13526
▁एस्पिर	-13527
▁बिताया	-13528
▁लाभकारी	-13529
▁विश्वव्यापी	-13530
▁प्रौद्योगिकियों	-13531
AN	-13532
my	-13533
दाब	-13534
हीर	-13535
▁01	-13536
▁se	-13537
ियोट	-13538
▁40%	-13539
चीपुर	-13540
जेक्ट	-13541
▁कलिल	-13542
▁ताजा	-13543
▁प्लस	-13544
▁हटाया	-13545
मानुसार	-13546
▁पहुँचकर	-13547
ट्ठ	-13548
िगो	-13549
न्को	-13550
▁बान	-13551
▁रेम	-13552
▁सोप	-13553
▁1870	-13554
▁कॉमन	-13555
▁डालर	-13556
▁कैफीन	-13557
▁चौड़े	-13558
▁मर्या	-13559
▁विराम	-13560
▁अन्ततः	-13561
▁बिजनेस	-13562
▁क्षारीय	-13563
▁निर्भरता	-13564
▁नेटवर्किंग	-13565
▁न्यूज़ीलैंड	-13566
ors	-13567
सिं	-13568
कुंड	-13569
ज़ोन	-13570
▁सेव	-13571
▁पूरब	-13572
▁प्या	-13573
▁बुरु	-13574
▁भालू	-13575
▁वज्र	-13576
▁गेहूं	-13577
▁फ्लोर	-13578
▁विषयक	-13579
▁इच्छुक	-13580
▁इलेक्ट	-13581
▁चोपड़ा	-13582
▁सेकेंड	-13583
द्दीनपुर	-13584
▁हड़प्पा	-13585
▁अधिकाधिक	-13586
63	-13587
:50	-13588
ames	-13589
ामिया	-13590
िट्यूट	-13591
▁मनोहर	-13592
▁प्रखंड	-13593
▁प्रतियां	-13594
▁महेन्द्र	-13595
▁मिलीमीटर	-13596
▁व्युत्पत्ति	-13597
सह	-13598
▁उथ	-13599
ग्नि	-13600
▁दोग	-13601
▁डिप्ल	-13602
▁स्पैन	-13603
▁कारीगर	-13604
▁जानबूझ	-13605
▁मास्को	-13606
▁रमापुर	-13607
▁उपनिषद्	-13608
▁युगांडा	-13609
▁समलैंगिक	-13610
▁समायोजित	-13611
▁टेलीग्राफ	-13612
▁अंटार्कटिक	-13613
▁कार्यान्वित	-13614
झी	-13615
iss	-13616
ायड	-13617
चारा	-13618
पाती	-13619
ृप्त	-13620
▁आति	-13621
▁पडा	-13622
▁यमन	-13623
▁अताई	-13624
▁सूखा	-13625
स्मानी	-13626
▁प्रोप	-13627
▁बैठकर	-13628
▁अभिषेक	-13629
▁इन्फ्ल	-13630
▁साइटों	-13631
▁आन्तरिक	-13632
▁बुद्धिमान	-13633
▁सुविधाजनक	-13634
▁हरसिंगपुर	-13635
Cl	-13636
ईस	-13637
तह	-13638
▁कुआ	-13639
ystem	-13640
▁संयम	-13641
▁इन्हे	-13642
▁दर्रा	-13643
▁विशेषतः	-13644
▁गाड़ियों	-13645
▁अब्दुल्ला	-13646
▁प्रावधानों	-13647
ंण	-13648
ुव	-13649
सरत	-13650
ाम्	-13651
▁all	-13652
▁ढोल	-13653
▁सहि	-13654
▁लावा	-13655
▁कोणीय	-13656
▁जीवंत	-13657
▁परौली	-13658
▁फ्रंट	-13659
▁लौकिक	-13660
▁अताईपुर	-13661
▁हार्वर्ड	-13662
▁प्रासंगिक	-13663
52	-13664
वला	-13665
ुपद	-13666
ोत्	-13667
▁मय	-13668
तत्व	-13669
▁ईथर	-13670
▁कोठ	-13671
▁पटल	-13672
कास्ट	-13673
▁जलाशय	-13674
▁गड़िया	-13675
▁रेसिंग	-13676
▁होल्कर	-13677
▁गायत्री	-13678
▁सुधारने	-13679
▁हुमायूँ	-13680
▁मंगलीपुर	-13681
▁रशीदाबाद	-13682
▁आनुवांशिक	-13683
▁चट्टग्राम	-13684
▁दार्शनिकों	-13685
ेण	-13686
फली	-13687
ाती	-13688
्सर	-13689
▁एम॰	-13690
▁मृग	-13691
▁अखंड	-13692
▁दीपक	-13693
▁कृत्य	-13694
▁ग्रास	-13695
▁बेड़े	-13696
▁समझता	-13697
▁अश्वेत	-13698
▁संन्यासी	-13699
▁रामचन्द्र	-13700
▁वास्तुशिल्प	-13701
6,	-13702
▁61	-13703
वर्म	-13704
ाइनल	-13705
ासिक	-13706
▁app	-13707
ेरिया	-13708
▁इंटेल	-13709
▁खोजों	-13710
▁नाइजर	-13711
▁फाँसी	-13712
▁फैलता	-13713
▁बृहत्	-13714
▁यशवंत	-13715
▁सस्ता	-13716
▁गैलियम	-13717
हाइड्रेट	-13718
▁आदर्शों	-13719
▁वायुयान	-13720
▁सूचनाओं	-13721
हाद	-13722
▁खोद	-13723
▁गर्व	-13724
▁डीडी	-13725
▁मेहर	-13726
▁चलाता	-13727
▁पैकेज	-13728
▁बुन्द	-13729
▁वृंदा	-13730
▁सिरों	-13731
▁बुद्धिम	-13732
▁संन्यास	-13733
▁सुलझाने	-13734
▁सांद्रता	-13735
▁आपातकालीन	-13736
▁फ्रैंकफर्ट	-13737
DA	-13738
पेरा	-13739
ुतली	-13740
▁श्म	-13741
▁सूब	-13742
्वाधर	-13743
▁सत्त	-13744
▁साधक	-13745
▁हैंड	-13746
▁अफवाह	-13747
▁नागाल	-13748
▁गायिका	-13749
▁समांतर	-13750
▁गैलेक्स	-13751
रिस	-13752
डेल्	-13753
शब्द	-13754
िकार	-13755
ेन्ट	-13756
▁जाम	-13757
▁एलिस	-13758
▁दबाने	-13759
▁फॉक्स	-13760
▁मैनेज	-13761
▁वडोदरा	-13762
▁उस्मानी	-13763
▁कोशिकाएँ	-13764
▁न्यूट्रॉन	-13765
▁आत्मसमर्पण	-13766
▁राष्ट्रवाद	-13767
ँव	-13768
अर्	-13769
टके	-13770
ोकस	-13771
ेशनल	-13772
▁घनी	-13773
▁लोम	-13774
▁जबरद	-13775
▁सीखा	-13776
िपुत्र	-13777
▁साढ़े	-13778
▁अनावरण	-13779
▁इजराइल	-13780
▁कमज़ोर	-13781
▁जुड़ने	-13782
▁जोड़ते	-13783
▁दलितों	-13784
▁मराठों	-13785
▁सम्भवत	-13786
▁पृष्ठों	-13787
▁बलात्कार	-13788
▁ब्राह्मी	-13789
▁अवधारणाओं	-13790
▁प्रयोगात्मक	-13791
▁मार्क्सवादी	-13792
ale	-13793
orn	-13794
सांग	-13795
साधन	-13796
▁शॉट	-13797
▁कमला	-13798
▁राजग	-13799
▁सीसा	-13800
▁दुर्य	-13801
▁फ्रें	-13802
▁मजदूरी	-13803
▁काशीपुर	-13804
▁रिलायंस	-13805
▁वैधानिक	-13806
पाकिस्तान	-13807
▁पुरस्कृत	-13808
▁न्यायपालिका	-13809
▁संवेदनशीलता	-13810
अंग	-13811
लित	-13812
ाधीन	-13813
ानेक	-13814
▁Rep	-13815
▁out	-13816
▁एंग	-13817
▁झों	-13818
▁पी॰	-13819
▁शूल	-13820
त्रेय	-13821
ाइलों	-13822
▁वैली	-13823
▁कबीले	-13824
▁लक्षित	-13825
्तिस्तान	-13826
▁छत्रपति	-13827
▁काँग्रेस	-13828
▁तिरुचिरापल्ली	-13829
नौ	-13830
ino	-13831
▁92	-13832
tern	-13833
य्या	-13834
▁जना	-13835
▁नमः	-13836
▁1897	-13837
▁आद्य	-13838
▁एचडी	-13839
▁बर्द	-13840
कारिता	-13841
क्ताओं	-13842
स्फीति	-13843
▁औषधीय	-13844
▁खानों	-13845
▁जड़ों	-13846
▁जायें	-13847
▁दरिया	-13848
▁पिण्ड	-13849
▁वक़्त	-13850
▁अज्ञान	-13851
▁डिवाइस	-13852
▁ब्रायन	-13853
▁शाखाएं	-13854
▁कैल्सियम	-13855
▁प्राइवेट	-13856
-17	-13857
ुंग	-13858
ould	-13859
कुलम	-13860
बाला	-13861
्राप	-13862
▁इस्	-13863
▁डेक	-13864
▁ढूँ	-13865
जीवों	-13866
विवाह	-13867
▁चारो	-13868
▁डायल	-13869
▁तत्स	-13870
▁मिनी	-13871
▁वर्ज	-13872
▁हंसा	-13873
▁रूपये	-13874
▁वृत्ति	-13875
▁अत्याधिक	-13876
▁वस्त्रों	-13877
▁पाठ्यक्रमों	-13878
मुन	-13879
वधि	-13880
वनि	-13881
▁9.	-13882
पिंड	-13883
▁जूते	-13884
▁सौदे	-13885
▁अथर्व	-13886
▁काष्ठ	-13887
▁गर्भग	-13888
▁जर्सी	-13889
▁वाल्व	-13890
▁अभिनीत	-13891
▁दाखिला	-13892
▁दिखाता	-13893
▁शक्तियां	-13894
टि	-13895
▁RF	-13896
▁बृ	-13897
ुरूप	-13898
ैम्प	-13899
▁जरा	-13900
▁1896	-13901
▁अंकन	-13902
▁मादक	-13903
ेंटाइन	-13904
▁स्पेश	-13905
▁होज़े	-13906
▁अम्लीय	-13907
▁सुनाया	-13908
▁हिब्रू	-13909
▁महासागरों	-13910
सनी	-13911
ुमा	-13912
ॉमली	-13913
▁सांप	-13914
▁गुच्छ	-13915
▁पित्त	-13916
▁समालो	-13917
▁क्रूज़	-13918
▁हड़ताल	-13919
▁तम्बाकू	-13920
▁कर्मियों	-13921
▁प्रवृत्तियों	-13922
oy	-13923
एफए	-13924
परा	-13925
ेंदु	-13926
▁पंत	-13927
▁मेक	-13928
ांज़ी	-13929
▁समया	-13930
▁रोहित	-13931
▁टोरंटो	-13932
▁गर्भगृह	-13933
▁बास्केट	-13934
▁म्यूजिक	-13935
▁शुद्धता	-13936
▁मतानुसार	-13937
ज्जु	-13938
▁साओ	-13939
शिक्षा	-13940
▁विधिव	-13941
▁साइबर	-13942
▁अंगूठी	-13943
▁असफलता	-13944
▁एकादशी	-13945
▁साक्षी	-13946
▁कारागार	-13947
▁लिपियों	-13948
▁अप्रत्या	-13949
▁केदारनाथ	-13950
ise	-13951
▁आड	-13952
याना	-13953
िपति	-13954
▁कमर	-13955
▁सेर	-13956
पृष्ठ	-13957
▁1904	-13958
▁एनाल	-13959
▁कबाब	-13960
▁फ्रे	-13961
▁बाली	-13962
▁रियो	-13963
▁विजु	-13964
▁स्काइ	-13965
▁अन्याय	-13966
▁सौभाग्य	-13967
▁हाथियों	-13968
▁प्लेटफार्म	-13969
▁ब्रह्मपुत्र	-13970
धु	-13971
हौ	-13972
सीमा	-13973
ाजित	-13974
िकेश	-13975
▁90%	-13976
▁ठिक	-13977
▁राघ	-13978
▁ऊष्म	-13979
▁केसर	-13980
▁घृणा	-13981
▁फीफा	-13982
▁वादक	-13983
▁सतही	-13984
वर्षीय	-13985
▁आठवें	-13986
▁खन्ना	-13987
▁घर्षण	-13988
▁सलमान	-13989
▁किस्मों	-13990
AS	-13991
झ़	-13992
300	-13993
ौटा	-13994
माउथ	-13995
रियर	-13996
▁इकल	-13997
तावास	-13998
तीकरण	-13999
प्लिन	-14000
ल्डेम	-14001
▁चादर	-14002
▁चुनी	-14003
▁महीन	-14004
▁मिर्	-14005
▁विभव	-14006
ड़ियां	-14007
ैच्छिक	-14008
▁कामना	-14009
▁ग्रेटर	-14010
▁जादूगर	-14011
▁लेबनान	-14012
▁कॉलेजों	-14013
▁एलिजाबेथ	-14014
▁करनेवाली	-14015
▁अपराधियों	-14016
▁आनुवंशिकी	-14017
gy	-14018
बॉय	-14019
हीम	-14020
▁असे	-14021
▁लाज	-14022
▁सोर	-14023
▁होश	-14024
ुलिया	-14025
▁होगन	-14026
▁पोषित	-14027
▁बारीक	-14028
▁अज़रबै	-14029
▁कमजोरी	-14030
▁निभाता	-14031
▁यमकेश्वर	-14032
▁कम्पनियों	-14033
▁मुस्लिमों	-14034
यड	-14035
बेई	-14036
▁तंब	-14037
ूनियन	-14038
▁अनिल	-14039
▁बहाल	-14040
▁शायर	-14041
▁सलीम	-14042
▁सेनान	-14043
▁प्रज्ञा	-14044
▁वैचारिक	-14045
व्यवस्थित	-14046
▁तस्वीरें	-14047
62	-14048
विजय	-14049
▁उठी	-14050
▁चों	-14051
▁तैल	-14052
छिद्र	-14053
र्थ्य	-14054
▁तटों	-14055
▁देगी	-14056
▁प्लग	-14057
भौतिकी	-14058
▁प्रवक्ता	-14059
▁फोटोग्रा	-14060
▁सोमालिया	-14061
▁अँ	-14062
reen	-14063
▁ऑब्	-14064
्रेनी	-14065
▁बेनी	-14066
▁युवक	-14067
▁हत्य	-14068
▁जागरण	-14069
▁रोकना	-14070
▁अयोग्य	-14071
▁नायिका	-14072
▁चतुर्भुज	-14073
▁मांसाहारी	-14074
▁स्क्रिप्ट	-14075
▁हिंदुस्तान	-14076
▁ढका	-14077
▁भटक	-14078
नेटिक	-14079
▁आस्त	-14080
▁पीतल	-14081
▁मंडप	-14082
▁लिहा	-14083
▁लोधी	-14084
▁शम्भ	-14085
▁तटस्थ	-14086
▁नरायन	-14087
▁पूछता	-14088
▁सांभर	-14089
▁अब्बास	-14090
▁उपसर्ग	-14091
▁ईसाइयों	-14092
▁फ़ॉस्फ़	-14093
▁संभालने	-14094
▁दुर्योधन	-14095
▁विजयवाड़ा	-14096
51	-14097
:10	-14098
:20	-14099
पीएस	-14100
स्ना	-14101
ानिक	-14102
▁एडी	-14103
▁काद	-14104
▁चाड	-14105
पर्या	-14106
▁पदवी	-14107
▁सतपु	-14108
प्रकार	-14109
▁चुनने	-14110
▁पन्ना	-14111
▁उपभाषा	-14112
▁कीमतों	-14113
▁घटनाएँ	-14114
▁अधीनस्थ	-14115
▁वन्यजीव	-14116
▁अनेकानेक	-14117
्सिल	-14118
▁Mar	-14119
▁राठ	-14120
द्धार	-14121
▁25.5	-14122
▁नीहार	-14123
▁पेंशन	-14124
▁हजारे	-14125
▁फैलाने	-14126
▁वेदान्त	-14127
2.	-14128
फिस	-14129
बिस	-14130
▁For	-14131
▁comm	-14132
▁अन्ध	-14133
▁ठहरा	-14134
▁तंतु	-14135
▁धीमा	-14136
▁नग्न	-14137
▁रीढ़	-14138
थेरेपी	-14139
▁उच्चतर	-14140
▁तेजपुर	-14141
▁खरीदारी	-14142
▁निकालना	-14143
▁प्रदत्त	-14144
▁प्रतिजैविक	-14145
मठ	-14146
ंबे	-14147
ाइक	-14148
योजन	-14149
▁गदर	-14150
▁जता	-14151
▁डी॰	-14152
▁1903	-14153
▁असहम	-14154
▁आइसल	-14155
▁चूने	-14156
▁साँस	-14157
प्रवाह	-14158
िसियाई	-14159
▁डेंगू	-14160
▁मानती	-14161
▁लगाता	-14162
▁अभिभाव	-14163
▁महाकवि	-14164
▁स्टीफन	-14165
▁वोल्डेम	-14166
▁स्ट्रोक	-14167
▁मर्सिडीज	-14168
▁स्मारकों	-14169
▁अभिनेताओं	-14170
▁प्रयोगशालाओं	-14171
प्पी	-14172
फ़ार	-14173
▁आख़	-14174
▁चेर	-14175
▁शकु	-14176
▁चौकी	-14177
फ़्तार	-14178
▁ज़रिये	-14179
▁मालिकों	-14180
▁प्रबन्धन	-14181
MI	-14182
शू	-14183
चिप	-14184
म्न	-14185
शरी	-14186
▁ओष	-14187
ग्बी	-14188
▁सुक	-14189
न्धान	-14190
▁पूंछ	-14191
▁फ़ुट	-14192
▁वामन	-14193
▁श्ले	-14194
न्‍द्र	-14195
▁डिस्प	-14196
▁दरगाह	-14197
▁फोर्ट	-14198
▁राजेश	-14199
▁आपत्ति	-14200
▁मालवीय	-14201
▁सड़कें	-14202
▁स्वरों	-14203
▁प्रचारक	-14204
▁प्रतिफल	-14205
▁फिलिस्त	-14206
▁संयोजित	-14207
▁स्पैनिश	-14208
▁सम्राटों	-14209
▁क्रिश्चियन	-14210
-18	-14211
ण्‍	-14212
तना	-14213
▁छठ	-14214
गोचर	-14215
▁चिद	-14216
▁नशी	-14217
▁गोबर	-14218
▁मीरा	-14219
▁हदीस	-14220
कुमारी	-14221
▁प्रशा	-14222
▁मुकेश	-14223
▁बड़ौदा	-14224
▁नियोजित	-14225
▁जॉर्जिया	-14226
▁निःशुल्क	-14227
▁व्यवसायिक	-14228
▁सेवानिवृत्ति	-14229
टेड	-14230
ध्व	-14231
शोथ	-14232
▁उज	-14233
इंडी	-14234
ईस्ट	-14235
▁ढाई	-14236
ांटिक	-14237
▁पीसी	-14238
▁लुईस	-14239
▁सचिन	-14240
▁सिलि	-14241
▁आमाशय	-14242
▁कर्कट	-14243
▁चेहरा	-14244
▁मिसाल	-14245
अमेरिकी	-14246
कृतियाँ	-14247
▁अग्रिम	-14248
▁अमान्य	-14249
▁अल्बान	-14250
▁मुहाने	-14251
▁आइसलैण्ड	-14252
▁पिक्चर्स	-14253
▁प्रतीक्षा	-14254
▁चंद्रगुप्त	-14255
▁जनतांत्रिक	-14256
▁हिन्दुस्तानी	-14257
ओस	-14258
ौनी	-14259
जनित	-14260
▁अखा	-14261
▁रेज	-14262
▁सल्	-14263
▁सैर	-14264
सेट्स	-14265
▁नाटो	-14266
▁सलाम	-14267
▁पांडे	-14268
देवताओं	-14269
▁निकासी	-14270
▁बावड़ी	-14271
▁आर्किमिडीज़	-14272
डक	-14273
जनी	-14274
फिश	-14275
िंस	-14276
ब्बा	-14277
▁मका	-14278
▁मित	-14279
विलास	-14280
▁आसवन	-14281
▁दशरथ	-14282
▁फ़ैल	-14283
▁करनाल	-14284
▁फोर्स	-14285
▁शिथिल	-14286
▁उद्धरण	-14287
ार्टमेंट	-14288
▁चालुक्य	-14289
▁अम्बेडकर	-14290
▁देशभक्ति	-14291
छे	-14292
पोत	-14293
शेप	-14294
raph	-14295
ंड्स	-14296
डाउन	-14297
▁ind	-14298
▁बमर	-14299
्यवाद	-14300
▁कंपन	-14301
▁गोर्	-14302
▁थकान	-14303
▁लटका	-14304
दिवसीय	-14305
श्रेणी	-14306
▁अनुरा	-14307
▁ईंटों	-14308
▁विराट	-14309
▁हवाओं	-14310
▁मेसोपोट	-14311
▁मॉडलिंग	-14312
▁विवेचना	-14313
▁आधुनिकता	-14314
72	-14315
ज़ीन	-14316
लेना	-14317
ities	-14318
uring	-14319
सूरती	-14320
▁जोकर	-14321
▁नकली	-14322
▁बतला	-14323
▁मीणा	-14324
प्रचार	-14325
▁बन्दी	-14326
▁रग्बी	-14327
▁सिवाय	-14328
▁आत्मनि	-14329
▁एन्ड्र	-14330
▁कल्पित	-14331
▁खिलाडी	-14332
▁प्लांट	-14333
▁सीबीएस	-14334
▁परिप्रे	-14335
▁महादेवी	-14336
▁डेमोक्रेटिक	-14337
▁वोल्डेमॉर्ट	-14338
ook	-14339
्हा	-14340
तिमा	-14341
▁ठुक	-14342
▁This	-14343
▁been	-14344
▁परदे	-14345
▁अल्फा	-14346
▁उठाते	-14347
▁ग्रेड	-14348
▁घराने	-14349
▁जातीं	-14350
▁दोस्ती	-14351
▁पेशावर	-14352
▁विरोधा	-14353
▁समितियों	-14354
MS	-14355
यदि	-14356
▁खग	-14357
bert	-14358
स्थि	-14359
▁पिच	-14360
▁रां	-14361
ार्जन	-14362
▁only	-14363
▁गाते	-14364
विभाजन	-14365
▁गवर्न	-14366
▁गुआंग	-14367
▁डिस्ट	-14368
▁सभापति	-14369
▁हीमोग्लोबिन	-14370
6′	-14371
केत	-14372
गड़	-14373
गाम	-14374
मच्छ	-14375
▁गुइ	-14376
▁into	-14377
▁अनन्य	-14378
▁पपड़ी	-14379
▁सेन्ट	-14380
िवेंद्र	-14381
▁पांड्य	-14382
▁धनात्मक	-14383
▁प्रजातियाँ	-14384
▁आतंकवादियों	-14385
▁z	-14386
संत	-14387
ोता	-14388
▁नह	-14389
irst	-14390
▁औरत	-14391
▁नोव	-14392
ुपयोग	-14393
▁उठाए	-14394
▁महाप	-14395
▁वृहत	-14396
र्तनों	-14397
▁शारदा	-14398
▁स्टेज	-14399
▁संबन्ध	-14400
▁सोमाली	-14401
▁एवरेस्ट	-14402
▁ब्रिगेड	-14403
▁सहिष्णु	-14404
▁ऑक्सीकरण	-14405
▁दस्तावेज़	-14406
▁शिलालेखों	-14407
ton	-14408
▁ph	-14409
▁फू	-14410
दोंग	-14411
फ़ान	-14412
र्गी	-14413
ॉन्स	-14414
▁बटन	-14415
▁रकम	-14416
▁चाहा	-14417
▁नाभि	-14418
▁लेडी	-14419
▁अंशों	-14420
▁खिलजी	-14421
▁दुर्द	-14422
▁बदलना	-14423
▁राजनय	-14424
▁हरिवंश	-14425
▁दूतावास	-14426
▁मौजूदगी	-14427
▁),	-14428
व्रत	-14429
सीएल	-14430
▁1.6	-14431
स्टेट	-14432
▁पारि	-14433
▁ल्यू	-14434
संहिता	-14435
स्ट्रा	-14436
▁दासों	-14437
▁प्लैट	-14438
▁कार्गो	-14439
▁मैंगनी	-14440
▁ऋणात्मक	-14441
▁अनुकूलित	-14442
▁मुद्राओं	-14443
▁अप्रत्याशित	-14444
cy	-14445
रोम	-14446
▁Ad	-14447
ग़ुर	-14448
राबी	-14449
ोग्र	-14450
▁तित	-14451
▁रवै	-14452
▁सहर	-14453
▁जेने	-14454
▁जेरी	-14455
▁डेरा	-14456
▁व्ही	-14457
▁अवतरण	-14458
▁ताँबा	-14459
▁गुजरने	-14460
▁भाषाएं	-14461
▁गांधीजी	-14462
▁पांचवें	-14463
▁फिलाडेल्	-14464
▁माध्यमों	-14465
▁पुनर्जीवित	-14466
79	-14467
मई	-14468
ौत	-14469
ंधा	-14470
outh	-14471
बंदर	-14472
▁कुक	-14473
ार्टर	-14474
िस्की	-14475
नीशिया	-14476
म्बलडन	-14477
▁पुतिन	-14478
▁संक्र	-14479
▁प्रचारित	-14480
▁कार्यक्षमता	-14481
ae	-14482
िरो	-14483
▁पैल	-14484
▁पोख	-14485
▁माघ	-14486
ादपुर	-14487
▁1895	-14488
आधुनिक	-14489
▁आंत्र	-14490
▁कुम्भ	-14491
▁हफ्ते	-14492
▁ग्राउंड	-14493
▁प्रक्रम	-14494
▁स्वच्छता	-14495
▁ऑटोमोबाइल	-14496
ोडो	-14497
▁चो	-14498
फर्ड	-14499
र्डन	-14500
▁तरा	-14501
▁प्रद	-14502
▁ब्रॉ	-14503
▁लिबर	-14504
▁सामी	-14505
▁मिस्त	-14506
ियोग्रा	-14507
▁निभायी	-14508
▁पीपुल्स	-14509
▁मस्जिदों	-14510
▁एंटीबायोटिक	-14511
मरण	-14512
▁Bl	-14513
▁नट	-14514
बानी	-14515
मेरी	-14516
्प्र	-14517
▁चेतन	-14518
▁गोल्फ	-14519
▁टूटने	-14520
▁भयभीत	-14521
▁समरूप	-14522
▁प्रकोप	-14523
▁मौलाना	-14524
▁रोमांस	-14525
▁अकबरपुर	-14526
▁विपक्षी	-14527
गुआ	-14528
नाशक	-14529
▁एना	-14530
▁गाए	-14531
▁पों	-14532
▁लैस	-14533
▁टर्न	-14534
▁टोनी	-14535
▁ड्रे	-14536
द्रव्य	-14537
र्वेदी	-14538
▁उर्वरक	-14539
▁जॉर्डन	-14540
▁विशेषत	-14541
▁फिनलैंड	-14542
▁फेडरेशन	-14543
▁संवेदना	-14544
▁आचार्यों	-14545
▁काठमांडू	-14546
▁एयरलाइन्स	-14547
ier	-14548
ont	-14549
टोक	-14550
विले	-14551
िंजर	-14552
▁चौर	-14553
▁झुक	-14554
▁निग	-14555
▁बीट	-14556
▁मुआ	-14557
▁आसीन	-14558
▁कस्ट	-14559
▁कुम्	-14560
▁कोलो	-14561
▁गलिय	-14562
▁चलना	-14563
▁लेनी	-14564
स्वरुप	-14565
हिन्दी	-14566
ियुक्त	-14567
▁ऑस्कर	-14568
▁वीज़ा	-14569
▁अलंकरण	-14570
▁आवंटित	-14571
▁प्रादु	-14572
▁बढ़ाता	-14573
▁बढ़ाते	-14574
▁वरीयता	-14575
▁सिन्धी	-14576
िवेंद्रम	-14577
▁बौद्धों	-14578
▁संग्रहण	-14579
▁वैयक्तिक	-14580
▁शिंजियांग	-14581
▁विशेषाधिकार	-14582
▁प्रतिद्वंद्व	-14583
उदी	-14584
सोल	-14585
ूरु	-14586
▁डो	-14587
स्कट	-14588
ॉल्ट	-14589
▁sub	-14590
वर्गीय	-14591
ोलिथिक	-14592
▁ठुकरा	-14593
▁पंचमी	-14594
▁वियना	-14595
विख्यात	-14596
▁निवेदन	-14597
▁नॉर्मन	-14598
▁पिंडों	-14599
▁असमानता	-14600
▁पाठशाला	-14601
▁प्रतीकों	-14602
▁राजेंद्र	-14603
▁अनुसन्धान	-14604
▁विद्यापीठ	-14605
▁प्रतिष्ठान	-14606
110	-14607
erm	-14608
▁108	-14609
▁आतं	-14610
▁गंज	-14611
▁झड़	-14612
▁झूठ	-14613
▁शाप	-14614
▁शिप	-14615
ारोहण	-14616
ेंट्स	-14617
▁more	-14618
▁जादु	-14619
▁नंदी	-14620
▁रनों	-14621
▁स्कि	-14622
▁हिप्प	-14623
▁चिन्तन	-14624
▁पालिका	-14625
▁क्लार्क	-14626
▁सिलसिले	-14627
▁निष्पक्ष	-14628
▁म्यूज़िक	-14629
▁वेस्टइंडी	-14630
ann	-14631
ैका	-14632
ेंडन	-14633
▁Phil	-14634
▁घिरे	-14635
▁रफ़ी	-14636
मोरियल	-14637
▁एरिया	-14638
▁कुबेर	-14639
▁हवाला	-14640
▁अशुद्ध	-14641
▁गुजरता	-14642
▁लाइनों	-14643
▁वैशाली	-14644
▁सीमाएँ	-14645
▁इक्विटी	-14646
▁पैदावार	-14647
▁मुरलीधर	-14648
▁यात्राओं	-14649
▁सिंड्रोम	-14650
▁क्षतिपूर्ति	-14651
▁कार्बोहाइड्रेट	-14652
aus	-14653
ज़्	-14654
ारो	-14655
▁ro	-14656
▁गगन	-14657
▁महज	-14658
▁दसवें	-14659
▁सुनील	-14660
▁आइलैंड	-14661
▁तुरन्त	-14662
▁निशाना	-14663
▁भुजाओं	-14664
▁अरविन्द	-14665
▁इंगलैंड	-14666
▁उपाध्याय	-14667
▁टेलिविज़न	-14668
▁प्रदर्शनों	-14669
षी	-14670
iel	-14671
▁आण	-14672
माही	-14673
सूची	-14674
स्वा	-14675
▁चीफ	-14676
बतपुर	-14677
▁86.4	-14678
▁क्वा	-14679
▁छेड़	-14680
▁मस्त	-14681
▁लड़ी	-14682
▁सुहा	-14683
▁आँखें	-14684
▁घोड़ों	-14685
▁पुनर्व	-14686
▁फिलीपी	-14687
▁बिल्ली	-14688
▁मुख्‍य	-14689
▁स्थगित	-14690
▁पांडवों	-14691
▁रहस्यमय	-14692
▁फिलाडेल्फिया	-14693
बद	-14694
-16	-14695
ala	-14696
रॉन	-14697
ोमो	-14698
▁Ne	-14699
रानी	-14700
ियास	-14701
▁गला	-14702
▁टों	-14703
▁तले	-14704
▁पेड	-14705
भद्रा	-14706
रावती	-14707
▁कैंप	-14708
▁खेली	-14709
▁पम्प	-14710
▁मुज़	-14711
▁हैदर	-14712
▁अंजाम	-14713
▁छंदों	-14714
▁टीमें	-14715
▁ऑपरेटर	-14716
▁कनेक्ट	-14717
▁पहचाने	-14718
▁आनेवाले	-14719
▁महिलाएँ	-14720
▁दृष्टिगोचर	-14721
:40	-14722
uke	-14723
ंबन	-14724
खलन	-14725
मलव	-14726
▁03	-14727
▁रिय	-14728
▁अभिर	-14729
▁कर्ज	-14730
▁कहां	-14731
▁आर्गन	-14732
▁किन्न	-14733
▁गन्ना	-14734
▁जिआंग	-14735
▁पौत्र	-14736
▁रणजीत	-14737
▁बतलाया	-14738
▁क्लासिक	-14739
▁दर्शनों	-14740
▁ध्वनियों	-14741
▁प्रसिद्द	-14742
▁प्रोसेसर	-14743
▁संप्रदायों	-14744
▁वू	-14745
ंगीर	-14746
कत्व	-14747
कार्	-14748
जिये	-14749
ण्टे	-14750
वतार	-14751
ांजी	-14752
ृष्ट	-14753
▁खर्	-14754
▁गम्	-14755
▁शतर	-14756
▁सूत	-14757
▁कृषक	-14758
▁परेड	-14759
▁स्टु	-14760
▁इन्ही	-14761
▁उगाया	-14762
▁उड़ने	-14763
▁सहभाग	-14764
▁आतंरिक	-14765
▁निर्मल	-14766
▁पिछड़े	-14767
▁रचनाएं	-14768
▁विमानन	-14769
▁प्लेटों	-14770
्यूमिनियम	-14771
▁आदिवासियों	-14772
▁फ़्रांसीसी	-14773
▁राष्ट्रभाषा	-14774
▁वेस्टमिंस्टर	-14775
थु	-14776
ays	-14777
कैम	-14778
निख	-14779
निच	-14780
हों	-14781
ायती	-14782
▁कंठ	-14783
▁काव	-14784
▁चौथ	-14785
▁शटल	-14786
▁हता	-14787
▁अकार	-14788
▁आदिक	-14789
▁एसएस	-14790
▁चाँद	-14791
▁छाती	-14792
▁हिला	-14793
▁पंक्त	-14794
▁पढ़ते	-14795
▁मध्या	-14796
▁रोमां	-14797
▁चार्टर	-14798
▁प्रपात	-14799
▁प्रेरण	-14800
▁मानदंड	-14801
▁हरिश्च	-14802
▁इंटरफेस	-14803
▁टेक्सास	-14804
▁संकुचित	-14805
▁स्टालिन	-14806
▁बिन्दुओं	-14807
▁सेंटीमीटर	-14808
▁सुव्यवस्थित	-14809
co	-14810
टॉ	-14811
एंजा	-14812
साकी	-14813
सीना	-14814
िलिन	-14815
▁पाम	-14816
▁मदि	-14817
▁बलूच	-14818
▁साईं	-14819
ामित्र	-14820
▁सस्ती	-14821
▁फूलपुर	-14822
▁रोलिंग	-14823
▁समन्वित	-14824
▁कार्यभार	-14825
▁निजामुद्दीन	-14826
▁परिप्रेक्ष्य	-14827
▁पुर्तगालियों	-14828
▁अन्तरराष्ट्रीय	-14829
ज़्म	-14830
डीपी	-14831
व्यू	-14832
▁बची	-14833
▁रैम	-14834
हैम्प	-14835
▁आयरन	-14836
▁स्लै	-14837
▁जीतकर	-14838
▁बचाया	-14839
▁वोटों	-14840
▁संहार	-14841
स्ट्रेट	-14842
▁आकांक्षा	-14843
▁डिप्लोमा	-14844
▁प्रमाणों	-14845
▁रोमांटिक	-14846
▁स्‍थापना	-14847
▁एन्ड्रॉयड	-14848
▁रिकॉर्ड्स	-14849
="	-14850
वाइ	-14851
▁ऐब	-14852
छोटी	-14853
▁अगा	-14854
▁रिफ	-14855
▁लाद	-14856
ative	-14857
▁कड़े	-14858
▁गढ़ी	-14859
▁षड्य	-14860
आर्थिक	-14861
्वीकरण	-14862
▁खुलना	-14863
▁दसवीं	-14864
▁पिस्त	-14865
▁मसाले	-14866
▁लहरों	-14867
▁उन्मुख	-14868
▁गरीबों	-14869
▁महानतम	-14870
▁मैग्नी	-14871
▁रामनगर	-14872
▁इच्छाओं	-14873
▁खूबसूरती	-14874
▁गोपनीयता	-14875
▁डब्ल्यू॰	-14876
▁नियंत्रक	-14877
▁वॉशिंगटन	-14878
▁प्रक्षेपित	-14879
चम	-14880
वध	-14881
थ्य	-14882
▁0.1	-14883
▁कन्	-14884
माबाद	-14885
▁कैरे	-14886
▁ट्रक	-14887
▁सुखा	-14888
▁सोया	-14889
▁उस्ता	-14890
▁घूमती	-14891
▁फसलें	-14892
▁नाइट्र	-14893
▁सोनिया	-14894
▁स्कन्द	-14895
▁चैप्लिन	-14896
▁पारदर्शी	-14897
ँक	-14898
रीद	-14899
सीर	-14900
▁जप	-14901
सम्प	-14902
▁काज	-14903
▁लामा	-14904
प्रयोग	-14905
▁पंखों	-14906
▁बन्दर	-14907
▁रोकता	-14908
▁मिथ्या	-14909
▁विधाओं	-14910
▁रिचार्ड	-14911
▁रेलगाड़ी	-14912
▁कार्यपालिका	-14913
▁दर्शनशास्त्र	-14914
मण	-14915
्ति	-14916
ोफोन	-14917
▁sup	-14918
▁कसौ	-14919
▁काप	-14920
▁कोत	-14921
▁तनु	-14922
▁बकर	-14923
▁मूक	-14924
▁मैट	-14925
▁सांग	-14926
▁हावी	-14927
▁अक्षम	-14928
▁अठारह	-14929
▁ग्लेश	-14930
▁जादुई	-14931
▁पकड़ा	-14932
▁फैण्ट	-14933
▁अनुभाग	-14934
▁जैक्सन	-14935
▁बालकों	-14936
▁विडियो	-14937
▁वेदांत	-14938
▁यूनिक्स	-14939
▁शुभारंभ	-14940
▁क्रमबद्ध	-14941
▁परम्पराओं	-14942
.3%	-14943
red	-14944
खनन	-14945
हंस	-14946
▁अघ	-14947
▁ठं	-14948
किसी	-14949
दमिक	-14950
शियल	-14951
▁mil	-14952
िश्रण	-14953
ेनियम	-14954
▁1858	-14955
▁1898	-14956
▁अभिम	-14957
▁गाँठ	-14958
▁मद्य	-14959
नांकित	-14960
न्स्टर	-14961
▁अपरिव	-14962
▁जानकार	-14963
▁वेश्या	-14964
फ़्टवेयर	-14965
▁उरुग्वे	-14966
▁रोनाल्ड	-14967
▁कॉर्पोरेशन	-14968
76	-14969
छी	-14970
ons	-14971
▁ईद	-14972
▁लह	-14973
निकल	-14974
मेंस	-14975
▁कलन	-14976
खेड़ा	-14977
रक्षा	-14978
▁भूरा	-14979
▁चिकनी	-14980
▁हिमाल	-14981
▁अंगोला	-14982
▁गोबिंद	-14983
▁लोकगीत	-14984
ांज़ीबार	-14985
▁गुणसूत्र	-14986
91	-14987
ाठी	-14988
▁do	-14989
▁220	-14990
▁कटि	-14991
ग्रता	-14992
विस्त	-14993
▁cent	-14994
▁छिपा	-14995
▁पर्स	-14996
▁पावन	-14997
▁पुरु	-14998
▁बगैर	-14999
▁हिरन	-15000
▁डार्क	-15001
▁त्वरण	-15002
▁न्यूज	-15003
▁बुराई	-15004
▁लड़ते	-15005
▁उपशाखा	-15006
▁खलनायक	-15007
▁चिंतित	-15008
▁मगरमच्छ	-15009
▁वैवाहिक	-15010
▁प्रजापति	-15011
▁कार्बोनेट	-15012
▁प्रतियोगी	-15013
▁लाइबेरिया	-15014
▁स्पष्टीकरण	-15015
CO	-15016
----	-15017
▁def	-15018
▁कंड	-15019
▁याक	-15020
न्स्ट	-15021
▁ऐल्य	-15022
▁खोले	-15023
▁छपाई	-15024
▁बसंत	-15025
▁सांर	-15026
▁अन्वेष	-15027
▁खिड़की	-15028
▁कारखाना	-15029
▁नरसंहार	-15030
▁निलंबित	-15031
▁बेरोजगारी	-15032
▁यथार्थवादी	-15033
डॉन	-15034
लीफ	-15035
ूपा	-15036
ines	-15037
ल्डन	-15038
▁3.5	-15039
▁कैट	-15040
▁नबी	-15041
▁फंस	-15042
▁सतल	-15043
▁हला	-15044
▁कुवै	-15045
▁जाली	-15046
संरचना	-15047
▁कल्कि	-15048
▁बताये	-15049
▁सोचने	-15050
केन्द्र	-15051
▁हीरोज़	-15052
पर्यावरण	-15053
▁कालान्तर	-15054
▁रामेश्वर	-15055
▁श्रृंगार	-15056
▁प्राप्तकर्ता	-15057
ert	-15058
eth	-15059
गली	-15060
तरह	-15061
िनल	-15062
ुना	-15063
छनीय	-15064
िकाल	-15065
ॉनों	-15066
ोन्म	-15067
▁जोड	-15068
▁नां	-15069
▁लेट	-15070
ज्ञों	-15071
▁1700	-15072
▁करुण	-15073
▁बाएँ	-15074
्राज्य	-15075
▁त्रिन	-15076
▁बोइंग	-15077
्वेन्टी	-15078
▁संकुचन	-15079
▁धूमकेतु	-15080
▁रानीखेत	-15081
▁अवार्ड्स	-15082
▁विदेशियों	-15083
CA	-15084
ंन	-15085
ोची	-15086
ject	-15087
कुशल	-15088
▁Bay	-15089
▁थिय	-15090
meric	-15091
ट्रैक	-15092
ोत्तम	-15093
▁खदान	-15094
▁चिकन	-15095
▁दिक्	-15096
▁लूथर	-15097
▁साँप	-15098
▁परमार	-15099
▁राजसी	-15100
्सिलोना	-15101
▁अदृश्य	-15102
▁कहलाने	-15103
▁सिल्वर	-15104
▁स्ट्रे	-15105
▁स्पेशल	-15106
▁तुम्हें	-15107
▁सुपरमैन	-15108
▁सूबेदार	-15109
▁समुद्रतल	-15110
yl	-15111
व्स	-15112
▁गह	-15113
▁नोड	-15114
ंद्रा	-15115
लियों	-15116
▁अनवर	-15117
▁चौरा	-15118
▁पथरी	-15119
▁बेचे	-15120
▁भावन	-15121
▁रोजर	-15122
त्तमान	-15123
▁कोस्ट	-15124
▁निरोध	-15125
▁केन्या	-15126
▁छवियों	-15127
▁निकोलस	-15128
▁सीमांत	-15129
▁अमोनिया	-15130
▁दोहराया	-15131
▁मछलियाँ	-15132
▁मर्यादा	-15133
▁महाकल्प	-15134
▁यूनिकोड	-15135
▁काॅमिक्स	-15136
▁चैंपियंस	-15137
▁प्रेमिका	-15138
▁अस्पतालों	-15139
▁निर्देशों	-15140
7°	-15141
har	-15142
गोस	-15143
रूम	-15144
▁WW	-15145
▁छल	-15146
साचु	-15147
▁कोस	-15148
▁चेन	-15149
▁रीड	-15150
पट्टी	-15151
्स्टन	-15152
▁ओवेन	-15153
▁पाटल	-15154
▁जुलूस	-15155
▁दर्जन	-15156
▁फ़्ले	-15157
▁अविश्व	-15158
▁निवेशक	-15159
▁हेमचंद्र	-15160
▁मैनेजमेंट	-15161
जतन	-15162
ूँद	-15163
▁उक	-15164
▁कठप	-15165
▁देवन	-15166
▁बलोच	-15167
▁ब्रै	-15168
▁व्ला	-15169
▁अन्तः	-15170
▁घुसपै	-15171
▁पकवान	-15172
▁पहनते	-15173
▁लचीला	-15174
▁स्मृत	-15175
▁अधिकरण	-15176
▁कदाचित	-15177
▁लैंगिक	-15178
▁सेनेगल	-15179
▁कप्तानी	-15180
▁दीवारें	-15181
▁दुष्प्र	-15182
▁नौसैनिक	-15183
▁बद्रीनाथ	-15184
▁उपराष्ट्रपति	-15185
94	-15186
==	-15187
फ़ि	-15188
ोत्र	-15189
▁10.	-15190
▁मौर	-15191
▁अजीब	-15192
प्रिया	-15193
▁पादपों	-15194
▁हम्मीर	-15195
▁त्रिपाठी	-15196
▁वृत्तचित्र	-15197
▁प्रतिभाशाली	-15198
ए॰	-15199
ूँगा	-15200
हीनता	-15201
▁1894	-15202
▁भस्म	-15203
▁वफाद	-15204
▁हेली	-15205
ोजेनिक	-15206
▁अर्पित	-15207
▁कावेरी	-15208
▁सामयिक	-15209
▁मंगलवार	-15210
▁नाममात्र	-15211
▁सामर्थ्य	-15212
▁बार्सिलोना	-15213
▁उम्मीदवारों	-15214
MA	-15215
इक	-15216
गुन	-15217
भ्य	-15218
here	-15219
गण्य	-15220
चनों	-15221
दुर्ग	-15222
ीयर्स	-15223
▁कंधे	-15224
▁आभासी	-15225
▁कलिंग	-15226
▁पच्ची	-15227
▁प्रहला	-15228
▁वारंगल	-15229
प्राप्ति	-15230
▁इसीलिये	-15231
▁महेंद्र	-15232
▁स्टार्च	-15233
▁नेटस्केप	-15234
▁सक्रियता	-15235
▁उत्पादकता	-15236
▁निर्माणाधीन	-15237
▁साम्राज्यवाद	-15238
EC	-15239
रर	-15240
ery	-15241
्मय	-15242
ंचली	-15243
सिनी	-15244
▁अलै	-15245
न्नों	-15246
स्‍था	-15247
▁1860	-15248
▁कराए	-15249
▁गुणन	-15250
▁बलुआ	-15251
▁लपेट	-15252
▁लाते	-15253
▁वसूल	-15254
▁कास्ट	-15255
▁बाघों	-15256
▁चिन्ता	-15257
▁सितारे	-15258
चिकित्सक	-15259
▁गर्भपात	-15260
▁लखीसराय	-15261
▁अस्थिरता	-15262
▁वर्त्तमान	-15263
▁फोटोग्राफी	-15264
▁शांतिपूर्ण	-15265
▁प्रादुर्भाव	-15266
ix	-15267
ेडा	-15268
edia	-15269
ular	-15270
वायर	-15271
स्पी	-15272
▁रहस	-15273
▁वक्ष	-15274
▁ख़राब	-15275
▁पेनिस	-15276
▁रोबोट	-15277
▁सिग्न	-15278
▁इन्दौर	-15279
▁कीनिया	-15280
▁विजुअल	-15281
▁चट्टानें	-15282
▁विश्वामित्र	-15283
,9	-15284
ँट	-15285
आज	-15286
उं	-15287
होम	-15288
।’’	-15289
▁CD	-15290
angu	-15291
ific	-15292
ंबुल	-15293
▁उलट	-15294
▁एपी	-15295
▁लकी	-15296
स्लिप	-15297
ांत्र	-15298
▁कूपर	-15299
▁चरित	-15300
▁मुहर	-15301
▁कवरेज	-15302
▁डब्लू	-15303
▁गंगाधर	-15304
▁गम्भीर	-15305
▁परिक्ष	-15306
▁बादलों	-15307
▁मनोरोग	-15308
सिद्धांत	-15309
▁आर्कटिक	-15310
▁उड़ानों	-15311
▁शत्रुओं	-15312
▁श्लोकों	-15313
▁निष्कासित	-15314
ta	-15315
फू	-15316
ेग	-15317
जिए	-15318
दाम	-15319
ूमत	-15320
ोगा	-15321
▁Ge	-15322
जियम	-15323
बीजी	-15324
िकों	-15325
▁360	-15326
▁des	-15327
▁तिम	-15328
▁यों	-15329
▁सीप	-15330
ंडरसन	-15331
▁Duke	-15332
▁डांस	-15333
▁पाला	-15334
▁विभि	-15335
▁सिंग	-15336
▁2,000	-15337
▁करतीं	-15338
▁कालों	-15339
▁गोकुल	-15340
▁बहुरा	-15341
▁सराहा	-15342
▁ज़िक्र	-15343
▁ड्रामा	-15344
▁धनराशि	-15345
▁फ्लाइट	-15346
▁मिलेगी	-15347
▁अनुपालन	-15348
▁इज़राइल	-15349
▁बुल्गार	-15350
▁रसायनों	-15351
▁समुद्रतट	-15352
▁प्रादेशिक	-15353
▁सम्बन्धों	-15354
▁उत्तरोत्तर	-15355
▁ज़ांज़ीबार	-15356
▁न्यायालयों	-15357
्पण	-15358
▁पते	-15359
▁बिम	-15360
▁सिए	-15361
▁तुगल	-15362
फ्रेंस	-15363
▁शैलों	-15364
▁संजीव	-15365
▁Prince	-15366
▁ओड़िशा	-15367
▁कुलपति	-15368
▁रचनाकार	-15369
▁रेडियोध	-15370
1}	-15371
NA	-15372
मंज	-15373
ूति	-15374
अंतर	-15375
डोना	-15376
नेगर	-15377
यानी	-15378
▁28°	-15379
▁dec	-15380
▁जोन	-15381
द्वाज	-15382
ारोही	-15383
▁मामा	-15384
▁मीठा	-15385
▁लड़े	-15386
▁trans	-15387
▁घुमाव	-15388
▁नर्तक	-15389
▁मुहैया	-15390
▁तंत्रों	-15391
▁धमनियों	-15392
▁तुर्कमेन	-15393
▁चतुर्वेदी	-15394
▁इंस्टिट्यूट	-15395
लु	-15396
िकट	-15397
▁Am	-15398
▁उखा	-15399
▁लक्	-15400
▁वसू	-15401
ंजिया	-15402
ड्रिड	-15403
▁ग्लू	-15404
▁चारा	-15405
▁टीले	-15406
▁बैरी	-15407
▁लगाव	-15408
ग्राही	-15409
▁इस्ता	-15410
▁उतरने	-15411
▁उल्का	-15412
▁तब्दी	-15413
▁दवाएं	-15414
▁पर्दे	-15415
▁मानों	-15416
▁सतर्क	-15417
▁सीनेट	-15418
▁स्विस	-15419
▁दाहिनी	-15420
▁बर्दीन	-15421
▁समीक्षक	-15422
▁सरदारों	-15423
▁सिरदर्द	-15424
.9%	-15425
खला	-15426
िसे	-15427
▁3-	-15428
ंदरी	-15429
र्घा	-15430
▁घों	-15431
▁जलो	-15432
▁मौन	-15433
पात्र	-15434
▁प्रज	-15435
▁मेटा	-15436
▁सदिश	-15437
▁बगीचे	-15438
▁बिकने	-15439
▁मदिरा	-15440
▁महानि	-15441
▁विचरण	-15442
▁ऐंडरसन	-15443
▁बढ़ोतरी	-15444
▁प्रशासित	-15445
▁वेदव्यास	-15446
▁ग्रीनहाउस	-15447
▁साहित्यकारों	-15448
दीव	-15449
नित	-15450
िवर	-15451
▁2-	-15452
▁मॅ	-15453
गाथा	-15454
पर्य	-15455
▁air	-15456
न्नति	-15457
भावित	-15458
▁खादी	-15459
▁टुडे	-15460
▁फासो	-15461
▁वज़न	-15462
▁सीईओ	-15463
▁पकड़े	-15464
▁हुबली	-15465
▁शासकीय	-15466
▁अण्डमान	-15467
▁कृत्यों	-15468
▁कॉर्नेल	-15469
▁भागीदार	-15470
▁प्रत्यावर्ती	-15471
रह	-15472
आलम	-15473
करा	-15474
▁डब	-15475
ंमार	-15476
काली	-15477
वादक	-15478
वेदी	-15479
सीएस	-15480
▁लंग	-15481
▁सोते	-15482
▁तैमूर	-15483
▁बर्बर	-15484
▁राँची	-15485
▁विचलन	-15486
▁क्वाली	-15487
▁Republic	-15488
▁अधिकारिक	-15489
▁मेमोरियल	-15490
▁प्रोफ़ेसर	-15491
▁सांप्रदाय	-15492
81	-15493
gl	-15494
जैव	-15495
न्ति	-15496
ूषित	-15497
▁चरक	-15498
▁भिक	-15499
कर्मी	-15500
▁दक्ख	-15501
▁संचय	-15502
▁अतिशय	-15503
▁बरसात	-15504
▁मायने	-15505
▁स्थला	-15506
▁एक्सेस	-15507
▁लेखिका	-15508
▁तालिबान	-15509
▁प्रबंधित	-15510
▁वल्लभभाई	-15511
▁नागार्जुन	-15512
▁प्रतिबिंब	-15513
▁बंदरगाहों	-15514
▁प्रतिबद्धता	-15515
ुमन	-15516
▁Le	-15517
चलित	-15518
हानी	-15519
▁अदर	-15520
▁चचे	-15521
न्सिल	-15522
िस्ता	-15523
▁4000	-15524
▁आलोक	-15525
▁चांद	-15526
▁माधो	-15527
▁रूपक	-15528
▁सज़ा	-15529
▁सुधा	-15530
▁स्‍व	-15531
एशियाई	-15532
स्पियन	-15533
▁कासिम	-15534
▁चढ़ने	-15535
▁जरुरी	-15536
▁ब्राग	-15537
▁एकाधिक	-15538
▁सांरगढ	-15539
▁द्वारका	-15540
▁विनियमन	-15541
गानिस्तान	-15542
▁एस्पिरिन	-15543
▁मताधिकार	-15544
▁प्रत्यारोपण	-15545
ंधर	-15546
जगह	-15547
पिड	-15548
उत्त	-15549
किंस	-15550
▁ऐनी	-15551
▁नकद	-15552
▁बाम	-15553
▁यूई	-15554
नाट्य	-15555
ायतों	-15556
▁फोर्	-15557
▁लीडर	-15558
वास्तव	-15559
स्कटॉप	-15560
▁इरादे	-15561
▁खंडवा	-15562
▁वार्म	-15563
▁अनुशास	-15564
▁पिस्टन	-15565
▁सर्पिल	-15566
........	-15567
▁अकादमिक	-15568
▁मणिपुरी	-15569
▁संदेशों	-15570
▁महायुद्ध	-15571
रॉ	-15572
एम॰	-15573
टोन	-15574
ुआन	-15575
▁हब	-15576
क्रो	-15577
▁कलश	-15578
▁गाल	-15579
▁जिय	-15580
▁दाई	-15581
निक्स	-15582
▁तात्	-15583
▁धकेल	-15584
ियोजित	-15585
▁आग्ने	-15586
▁करवाई	-15587
▁कारगर	-15588
▁कुवैत	-15589
▁बोत्स	-15590
▁मारकर	-15591
▁वेगास	-15592
▁अब्राह	-15593
▁चतुर्द	-15594
▁नतीजतन	-15595
▁अनुवादक	-15596
▁क्यूंकि	-15597
▁स्वादिष्ट	-15598
▁निम्नांकित	-15599
78	-15600
ars	-15601
ब्य	-15602
िलन	-15603
्पा	-15604
▁अड	-15605
जर्स	-15606
न्‍द	-15607
समान	-15608
▁फ़ा	-15609
▁बेश	-15610
िदपुर	-15611
▁अवां	-15612
▁उभार	-15613
▁गुदा	-15614
▁ममता	-15615
▁हीरे	-15616
▁कैरोल	-15617
▁कोशों	-15618
▁प्लान	-15619
▁वैधता	-15620
▁शेरशाह	-15621
▁अन्यत्र	-15622
▁पहुंचता	-15623
▁विश्वभर	-15624
▁ग्राफिक्स	-15625
▁मेसोपोटामिया	-15626
नाभ	-15627
ाजत	-15628
्सट	-15629
onom	-15630
नवेल	-15631
▁जार	-15632
▁जुर	-15633
▁पाट	-15634
▁अतिक	-15635
▁कम्ब	-15636
▁चेयर	-15637
▁नुकी	-15638
▁विनय	-15639
▁सूती	-15640
▁इण्टर	-15641
▁कच्चा	-15642
▁टिहरी	-15643
▁तंजौर	-15644
▁दिलीप	-15645
▁पोटें	-15646
▁समकोण	-15647
▁घुसपैठ	-15648
▁प्रागै	-15649
▁प्लेटो	-15650
▁ब्लेयर	-15651
▁निर्णयों	-15652
▁स्तनधारी	-15653
▁पाटलिपुत्र	-15654
▁प्रणालियाँ	-15655
ym	-15656
yp	-15657
ows	-15658
गुल	-15659
तरा	-15660
संध	-15661
ूषण	-15662
▁Pl	-15663
▁ठा	-15664
वेज़	-15665
▁टेप	-15666
▁शिन	-15667
▁सेश	-15668
▁1815	-15669
▁प्लेस	-15670
▁संघों	-15671
जीवियों	-15672
▁मजबूती	-15673
▁रामगढ़	-15674
▁उत्कर्ष	-15675
▁उत्पीड़न	-15676
▁संचिकाओं	-15677
▁हस्तशिल्प	-15678
कंप	-15679
बनी	-15680
मारा	-15681
्सरा	-15682
▁30%	-15683
▁Pro	-15684
▁bet	-15685
▁किड	-15686
▁हेग	-15687
▁जेली	-15688
▁रमेश	-15689
▁लैंस	-15690
▁सबका	-15691
▁सुखद	-15692
ातंत्र	-15693
▁अनगिन	-15694
▁आपूर्	-15695
▁चालित	-15696
▁ट्रिब	-15697
▁धोखाध	-15698
▁प्रलय	-15699
▁मिठाई	-15700
▁शौर्य	-15701
▁कैथरीन	-15702
▁जिन्हे	-15703
▁निर्वात	-15704
▁फ़िलिपी	-15705
▁विकल्पों	-15706
▁डब्ल्यूडब्ल्यू	-15707
ne	-15708
कोच	-15709
वरा	-15710
ड्डा	-15711
▁70%	-15712
▁गुज	-15713
▁बोह	-15714
▁वसु	-15715
▁वी॰	-15716
वंशीय	-15717
▁छद्म	-15718
▁पढ़ी	-15719
▁यादृ	-15720
▁सौते	-15721
▁कमाने	-15722
▁खतरों	-15723
▁गरुड़	-15724
▁चलाये	-15725
अमेरिका	-15726
▁असहयोग	-15727
▁श्रुति	-15728
▁रिएक्टर	-15729
▁वृंदावन	-15730
▁सरकारें	-15731
▁छात्रवृत्ति	-15732
▁बहुराष्ट्रीय	-15733
its	-15734
ंजित	-15735
भंगा	-15736
▁dis	-15737
▁आदत	-15738
▁खेम	-15739
विभाग	-15740
▁आर्च	-15741
▁उठने	-15742
▁चबूत	-15743
▁नारे	-15744
▁फ़िन	-15745
▁सपने	-15746
कार्बन	-15747
▁कीटना	-15748
▁चौबीस	-15749
▁जिनपर	-15750
▁नासिक	-15751
▁बिखरे	-15752
▁उस्ताद	-15753
▁ऋषिकेश	-15754
▁फेलुदा	-15755
▁शॉपिंग	-15756
▁साहसिक	-15757
▁मैड्रिड	-15758
▁विध्वंस	-15759
▁पाण्डवों	-15760
▁सब्जियों	-15761
▁त्रुटियों	-15762
▁रिचार्डसन	-15763
▁राधाकृष्णन	-15764
▁जनसांख्यिकीक	-15765
▁km	-15766
लेटर	-15767
िदाद	-15768
ुलिन	-15769
▁सरस	-15770
रावली	-15771
▁एप्ल	-15772
▁ग़लत	-15773
▁टोगो	-15774
▁पॉवर	-15775
▁बॉडी	-15776
▁5,000	-15777
▁उठाना	-15778
▁मोटरस	-15779
▁सिखाया	-15780
▁शाकाहार	-15781
▁अनुमोदित	-15782
5,	-15783
बुद	-15784
वोर	-15785
वाचक	-15786
ौड़ा	-15787
▁शील	-15788
▁सिय	-15789
esent	-15790
साध्य	-15791
▁अक्त	-15792
▁उभरे	-15793
▁ढलान	-15794
▁बेबी	-15795
▁भड़क	-15796
▁वाइड	-15797
वृद्धि	-15798
ाम्बिक	-15799
▁ऐल्बम	-15800
▁ख्वाजा	-15801
▁फिलहाल	-15802
▁मनोनीत	-15803
▁रामदेव	-15804
▁अल्मोडा	-15805
▁रामचरित	-15806
▁रिपब्लिक	-15807
▁इलेक्ट्रो	-15808
ude	-15809
urg	-15810
पता	-15811
ब्ज	-15812
ious	-15813
▁ISO	-15814
▁कडप	-15815
ction	-15816
▁RFID	-15817
▁धड़क	-15818
▁फ़ैस	-15819
▁सर्च	-15820
पट्टनम	-15821
▁काउंट	-15822
▁खिड़क	-15823
▁जमैका	-15824
▁टेलिफ	-15825
▁महान्	-15826
▁ख़िताब	-15827
▁तब्दील	-15828
▁बराबरी	-15829
▁वंशानु	-15830
उन्होंने	-15831
▁पैगम्बर	-15832
▁मिर्ज़ा	-15833
▁राशियों	-15834
▁शीघ्रता	-15835
▁एनिमेटेड	-15836
▁क्वार्टर	-15837
▁जिज्ञासा	-15838
▁डॉक्टरेट	-15839
▁प्रकाशीय	-15840
▁ऊर्ध्वाधर	-15841
▁कलाकृतियों	-15842
▁सॉफ़्टवेयर	-15843
▁क्षुद्रग्रह	-15844
▁कार्यक्षेत्र	-15845
MT	-15846
▁	-15847
ा	-15848
क	-15849
र	-15850
्	-15851
े	-15852
ि	-15853
न	-15854
स	-15855
त	-15856
ं	-15857
ी	-15858
म	-15859
ह	-15860
य	-15861
प	-15862
ल	-15863
ो	-15864
व	-15865
द	-15866
ज	-15867
ै	-15868
ग	-15869
ु	-15870
ब	-15871
।	-15872
श	-15873
अ	-15874
ट	-15875
,	-15876
थ	-15877
ए	-15878
भ	-15879
च	-15880
ू	-15881
ड	-15882
ध	-15883
इ	-15884
ष	-15885
उ	-15886
ण	-15887
आ	-15888
औ	-15889
ख	-15890
़	-15891
फ	-15892
1	-15893
ई	-15894
0	-15895
-	-15896
2	-15897
.	-15898
ृ	-15899
ौ	-15900
9	-15901
ँ	-15902
छ	-15903
e	-15904
·	-15905
ॉ	-15906
a	-15907
ओ	-15908
5	-15909
8	-15910
घ	-15911
i	-15912
"	-15913
t	-15914
7	-15915
ठ	-15916
n	-15917
3	-15918
o	-15919
4	-15920
r	-15921
6	-15922
s	-15923
'	-15924
•	-15925
ढ	-15926
:	-15927
l	-15928
ञ	-15929
h	-15930
d	-15931
|	-15932
c	-15933
ऐ	-15934
झ	-15935
ऊ	-15936
u	-15937
/	-15938
m	-15939
ऑ	-15940
ः	-15941
‍	-15942
p	-15943
g	-15944
°	-15945
y	-15946
f	-15947
;	-15948
N	-15949
E	-15950
b	-15951
′	-15952
A	-15953
S	-15954
w	-15955
C	-15956
I	-15957
M	-15958
॰	-15959
%	-15960
v	-15961
P	-15962
k	-15963
T	-15964
B	-15965
D	-15966
‘	-15967
’	-15968
=	-15969
ऋ	-15970
R	-15971
H	-15972
ॅ	-15973
}	-15974
[...]
